node {
  name: "global_step/Initializer/zeros"
  op: "Const"
  attr {
    key: "_class"
    value {
      list {
        s: "loc:@global_step"
      }
    }
  }
  attr {
    key: "_output_shapes"
    value {
      list {
        shape {
        }
      }
    }
  }
  attr {
    key: "dtype"
    value {
      type: DT_INT64
    }
  }
  attr {
    key: "value"
    value {
      tensor {
        dtype: DT_INT64
        tensor_shape {
        }
        int64_val: 0
      }
    }
  }
}
node {
  name: "global_step"
  op: "VariableV2"
  attr {
    key: "_class"
    value {
      list {
        s: "loc:@global_step"
      }
    }
  }
  attr {
    key: "_output_shapes"
    value {
      list {
        shape {
        }
      }
    }
  }
  attr {
    key: "container"
    value {
      s: ""
    }
  }
  attr {
    key: "dtype"
    value {
      type: DT_INT64
    }
  }
  attr {
    key: "shape"
    value {
      shape {
      }
    }
  }
  attr {
    key: "shared_name"
    value {
      s: ""
    }
  }
}
node {
  name: "global_step/Assign"
  op: "Assign"
  input: "global_step"
  input: "global_step/Initializer/zeros"
  attr {
    key: "T"
    value {
      type: DT_INT64
    }
  }
  attr {
    key: "_class"
    value {
      list {
        s: "loc:@global_step"
      }
    }
  }
  attr {
    key: "_output_shapes"
    value {
      list {
        shape {
        }
      }
    }
  }
  attr {
    key: "use_locking"
    value {
      b: true
    }
  }
  attr {
    key: "validate_shape"
    value {
      b: true
    }
  }
}
node {
  name: "global_step/read"
  op: "Identity"
  input: "global_step"
  attr {
    key: "T"
    value {
      type: DT_INT64
    }
  }
  attr {
    key: "_class"
    value {
      list {
        s: "loc:@global_step"
      }
    }
  }
  attr {
    key: "_output_shapes"
    value {
      list {
        shape {
        }
      }
    }
  }
}
node {
  name: "Const"
  op: "Const"
  attr {
    key: "_output_shapes"
    value {
      list {
        shape {
          dim {
            size: 1855
          }
        }
      }
    }
  }
  attr {
    key: "dtype"
    value {
      type: DT_FLOAT
    }
  }
  attr {
    key: "value"
    value {
      tensor {
        dtype: DT_FLOAT
        tensor_shape {
          dim {
            size: 1855
          }
        }
        tensor_content: "\000\000@@\000\000@@\000\000\200@\000\000\240@\000\000\300@\000\000\000@\000\000@@\000\000@@\000\000\240@\000\000@@\000\000\200@\000\000@@\000\000\000@\000\000\200@\000\000\300@\000\000\240@\000\000\000@\000\000\000@\000\000\240@\000\000\240@\000\000\000@\000\000\000\000\000\000\240@\000\000\000@\000\0000A\000\000@@\000\000\000@\000\000\200?\000\000\000\000\000\000@@\000\000@@\000\000\000@\000\000\300@\000\000\200@\000\000@@\000\000\200@\000\000@@\000\000\240@\000\000\200@\000\000\240@\000\000\000@\000\000\200@\000\000\000@\000\000\200?\000\000\000\000\000\000\200@\000\000\300@\000\000\300@\000\000@@\000\000\000@\000\000\200@\000\000\000A\000\000@@\000\000\200@\000\000\200@\000\000@@\000\000\000@\000\000\200?\000\000@@\000\000\200?\000\000\000@\000\000@@\000\000@@\000\000\000\000\000\000\240@\000\000\340@\000\000@@\000\000\200@\000\000@@\000\000\200@\000\000@@\000\000@@\000\000@@\000\000@@\000\000@@\000\000\340@\000\000\200?\000\000\200@\000\000@@\000\000\000@\000\000\000@\000\000@@\000\000\000@\000\000\200@\000\000\200@\000\000\000\000\000\000\240@\000\000@@\000\000\200@\000\000@@\000\000\200@\000\000@@\000\000@@\000\000@@\000\000\200@\000\000\200@\000\000\200@\000\000@@\000\000\200@\000\000\200@\000\000\020A\000\000\000@\000\000\200@\000\000\200@\000\000\200@\000\000\200@\000\000@@\000\000\200@\000\000@@\000\000@@\000\000\240@\000\000@@\000\000@@\000\000\240@\000\000@@\000\000\000@\000\000\200@\000\000\300@\000\000\240@\000\000\000@\000\000@@\000\000@@\000\000@@\000\000@@\000\000\000@\000\000\000@\000\000@@\000\000@@\000\000\200@\000\000\000@\000\000\000@\000\000@@\000\000\000\000\000\000\200@\000\000@@\000\000\240@\000\000\000@\000\000@@\000\000@@\000\000\200@\000\000\200@\000\000\000@\000\000\300@\000\000@@\000\000\200?\000\000\000@\000\000\000@\000\000\200@\000\000\200@\000\000\300@\000\000@@\000\000@@\000\000\200?\000\000\200@\000\000@@\000\000@@\000\000@@\000\000\300@\000\000@@\000\000\300@\000\000@@\000\000\000@\000\000@@\000\000\200@\000\000\000@\000\000@@\000\000\200?\000\000\000\000\000\000@@\000\000@@\000\000\240@\000\000@@\000\000@@\000\000\000@\000\000\000@\000\000\000@\000\000@@\000\000\200@\000\000\000@\000\000@@\000\000@@\000\000@@\000\000@@\000\000\240@\000\000@@\000\000\340@\000\000@@\000\000\200?\000\000@@\000\000\240@\000\000\200?\000\000\000@\000\000\200@\000\000@@\000\000\000\000\000\000\200@\000\000\200@\000\000\200@\000\000@@\000\000@@\000\000\000@\000\000\240@\000\000\300@\000\000\000@\000\000\200@\000\000\200@\000\000\000\000\000\000\200@\000\000\200@\000\000@@\000\000@@\000\000\000A\000\000\240@\000\000\300@\000\000@@\000\000\200?\000\000\000\000\000\000\200?\000\000@@\000\000\300@\000\000\200@\000\000\240@\000\000\000@\000\000\200@\000\000\240@\000\000@@\000\000\240@\000\000@@\000\000@@\000\000\000@\000\000@@\000\000\200@\000\000@@\000\000\200@\000\000@@\000\000\200@\000\000\200@\000\000@@\000\000\240@\000\000@@\000\000\200@\000\000\200@\000\000@@\000\000\240@\000\000\000@\000\000@@\000\000@@\000\000\200?\000\000\000@\000\000\200?\000\000@@\000\000@@\000\000\000@\000\000\200@\000\000\200?\000\000\000\000\000\000@@\000\000@@\000\000\240@\000\000\200?\000\000\200?\000\000@@\000\000\000@\000\000\300@\000\000@@\000\000\200@\000\000\000@\000\000@@\000\000\300@\000\000\240@\000\000\000@\000\000@@\000\000@@\000\000\000\000\000\000@@\000\000\200?\000\000@@\000\000@@\000\000\200@\000\000\200?\000\000@@\000\000\240@\000\000\200@\000\000@@\000\000\300@\000\000\240@\000\000@@\000\000\200?\000\000@@\000\000\240@\000\000@@\000\000\000@\000\000@@\000\000\200@\000\000\000\000\000\000\000@\000\000@@\000\000\200@\000\000\200@\000\000@@\000\000\000\000\000\000\240@\000\000\000@\000\000@@\000\000\240@\000\000\240@\000\000\200?\000\000\200@\000\000\000@\000\000\000@\000\000@@\000\000\200?\000\000@@\000\000\000@\000\000\000@\000\000@@\000\000\200@\000\000\200@\000\000\200?\000\000@@\000\000@@\000\000\240@\000\000\000@\000\000\200?\000\000\000@\000\000\000@\000\000@@\000\000\240@\000\000\200?\000\000\200?\000\000\200@\000\000@@\000\000@@\000\000@@\000\000\340@\000\000@@\000\000\200@\000\000@@\000\000\240@\000\000\240@\000\000@@\000\000\200@\000\000\240@\000\000@@\000\000\200@\000\000\200?\000\000@@\000\000\240@\000\000@@\000\000@@\000\000\000@\000\000\000@\000\000\200@\000\000\000@\000\000@@\000\000@@\000\000\200@\000\000\000A\000\000\200?\000\000\000@\000\000@@\000\000\300@\000\000\240@\000\000\000@\000\000\200@\000\000\300@\000\000\000\000\000\000@@\000\000@@\000\000\000@\000\000\200@\000\000\000\000\000\000\300@\000\000@@\000\000@@\000\000\000@\000\000@@\000\000\300@\000\000\240@\000\000@@\000\000@@\000\000@@\000\000\000@\000\000\200?\000\000\240@\000\000@@\000\000\200@\000\000\000\000\000\000@@\000\000\000@\000\000@@\000\000\000@\000\000@@\000\000\340@\000\000\200@\000\000\200?\000\000@@\000\000@@\000\000\200@\000\000\200@\000\000\200@\000\000\240@\000\000@@\000\000\200@\000\000\000@\000\000\340@\000\000\240@\000\000@@\000\000\000@\000\000\200?\000\000@@\000\000\000@\000\000@@\000\000@@\000\000@@\000\000@@\000\000@@\000\000@@\000\000@@\000\000@@\000\000\240@\000\000\200@\000\000@@\000\000\000@\000\000@@\000\000\000@\000\000\000@\000\000\200?\000\000\000@\000\000\200@\000\000\200@\000\000\000@\000\000\200?\000\000\200@\000\000\000\000\000\000\000@\000\000\240@\000\000\240@\000\000@@\000\000@@\000\000@@\000\000@@\000\000\200?\000\000@@\000\000\000@\000\000\200@\000\000@@\000\000@@\000\000@@\000\000@@\000\000\200@\000\000\200@\000\000@@\000\000\000@\000\000\000@\000\000\200@\000\000@@\000\000@@\000\000@@\000\000@@\000\000@@\000\000\200@\000\000@@\000\000\200@\000\000\200@\000\000@@\000\000\000@\000\000@@\000\000\000@\000\000@@\000\000@@\000\000\000@\000\000\000\000\000\000\300@\000\000@@\000\000@@\000\000@@\000\000@@\000\000@@\000\000\240@\000\000\000@\000\000\200@\000\000@@\000\000\200@\000\000@@\000\000\300@\000\000\300@\000\000\300@\000\000@@\000\000\300@\000\000\240@\000\000@@\000\000\000@\000\000\200?\000\000\240@\000\000\200@\000\000\200@\000\000\000@\000\000@@\000\000@@\000\000\000@\000\000\200@\000\000@@\000\000@@\000\000\240@\000\000@@\000\000\200?\000\000\200@\000\000@@\000\000\200?\000\000\200?\000\000@@\000\000@@\000\000@@\000\000\000@\000\000@@\000\000\000@\000\000\000@\000\000\200@\000\000@@\000\000\340@\000\000@@\000\000\000\000\000\000\000@\000\000@@\000\000\000@\000\000\000@\000\000@@\000\000\200@\000\000\200@\000\000@@\000\000 A\000\000\300@\000\000@@\000\000@@\000\000@@\000\000\200@\000\000@@\000\000\000\000\000\000\200@\000\000@@\000\000\200@\000\000@@\000\000\000\000\000\000\240@\000\000\000@\000\000@@\000\000\240@\000\000@@\000\000\200@\000\000\300@\000\000\000@\000\000\000@\000\000@@\000\000@@\000\000\000@\000\000@@\000\000\000@\000\000\200@\000\000@@\000\000@@\000\000@@\000\000\000A\000\000\300@\000\000@@\000\000@@\000\000@@\000\000\240@\000\000\200@\000\000@@\000\000@@\000\000\200@\000\000\240@\000\000@@\000\000@@\000\000\200@\000\000\000@\000\000\000\000\000\000@@\000\000\200?\000\000\200@\000\000\000\000\000\000@@\000\000\000@\000\000\200@\000\000\000@\000\000\000@\000\000\240@\000\000@@\000\000\200@\000\000\000@\000\000\200?\000\000\000@\000\000\200?\000\000@@\000\000\200@\000\000@@\000\000@@\000\000\240@\000\000@@\000\000\240@\000\000@@\000\000\200?\000\000\200@\000\000@@\000\000\200@\000\000\000@\000\000\240@\000\000\200@\000\000\300@\000\000\200@\000\000\000@\000\000\200@\000\000\000@\000\000\000@\000\000@@\000\000@@\000\000\300@\000\000@@\000\000\000@\000\000\240@\000\000\200@\000\000\300@\000\000\200@\000\000@@\000\000@@\000\000\200@\000\000\000@\000\000\200?\000\000\200?\000\000\000@\000\000@@\000\000\200@\000\000@@\000\000\000@\000\000\240@\000\000\200@\000\000\200?\000\000\000@\000\000\200@\000\000\000@\000\000@@\000\000\200@\000\000@@\000\000\200@\000\000\240@\000\000\000@\000\000\200@\000\000\000@\000\000\200?\000\000\200?\000\000@@\000\000@@\000\000\240@\000\000@@\000\000@@\000\000\300@\000\000\240@\000\000\300@\000\000@@\000\000\000@\000\000@@\000\000\240@\000\000\000@\000\000\240@\000\000\200@\000\000@@\000\000\200?\000\000\200@\000\000\000@\000\000@@\000\000@@\000\000@@\000\000@@\000\000\000@\000\000\000@\000\000@@\000\000\240@\000\000@@\000\000@@\000\000\000@\000\000@@\000\000@@\000\000\200?\000\000\000@\000\000\340@\000\000\200@\000\000\200@\000\000\000@\000\000\240@\000\000@@\000\000@@\000\000\200@\000\000\200@\000\000\200@\000\000\000\000\000\000\000@\000\000\240@\000\000\200@\000\000\200@\000\000\000@\000\000\000\000\000\000\000@\000\000\000@\000\000\000\000\000\000\000@\000\000\240@\000\000@@\000\000\240@\000\000\200@\000\000\240@\000\000@@\000\000\000@\000\000\000@\000\000\200@\000\000@@\000\000@@\000\000\000@\000\000@@\000\000\240@\000\000\300@\000\000\000@\000\000\240@\000\000\200@\000\000@@\000\000\200?\000\000\000@\000\000\000@\000\000\200@\000\000\240@\000\000\200@\000\000@@\000\000\000@\000\000\240@\000\000\240@\000\000\000@\000\000\000\000\000\000\300@\000\000\300@\000\000@@\000\000@@\000\000\200@\000\000@@\000\000@@\000\000@@\000\000\200?\000\000@@\000\000@@\000\000\000@\000\000\200@\000\000@@\000\000\000@\000\000\000\000\000\000@@\000\000\000@\000\000\240@\000\000\200?\000\000@@\000\000@@\000\000\000@\000\000@@\000\000@@\000\000\240@\000\000\340@\000\000\200@\000\000\000@\000\000@@\000\000\200@\000\000@@\000\000\200@\000\000\200?\000\000@@\000\000\200@\000\000\200@\000\000\200@\000\000@@\000\000@@\000\000@@\000\000@@\000\000\000@\000\000\300@\000\000\240@\000\000@@\000\000@@\000\000@@\000\000\300@\000\000@@\000\000@@\000\000\000@\000\000@@\000\000\000@\000\000\200@\000\000\000@\000\000@@\000\000@@\000\000\240@\000\000\300@\000\000\240@\000\000@@\000\000\240@\000\000@@\000\000@@\000\000\000@\000\000\000\000\000\000\200?\000\000\000@\000\000\200@\000\000\200?\000\000\200@\000\000\000@\000\000@@\000\000\200@\000\000\200@\000\000\200?\000\000@@\000\000\200@\000\000\200?\000\000@@\000\000\000@\000\000@@\000\000\200@\000\000\200@\000\000\200@\000\000\300@\000\000@@\000\000\240@\000\000\200@\000\000@@\000\000\340@\000\000@@\000\000\000@\000\000\300@\000\000\200@\000\000@@\000\000\000@\000\000\000\000\000\000@@\000\000\200@\000\000@@\000\000@@\000\000\000@\000\000\200@\000\000@@\000\000\200@\000\000\000@\000\000\200@\000\000\200@\000\000\240@\000\000\240@\000\000\000@\000\000@@\000\000\000@\000\000\200@\000\000\000@\000\000\200?\000\000@@\000\000@@\000\000\200@\000\000\300@\000\000\200@\000\000\000\000\000\000\000@\000\000\200?\000\000\000@\000\000\340@\000\000\200@\000\000@@\000\000\000@\000\000\000@\000\000\300@\000\000\000@\000\000\200@\000\000\240@\000\000@@\000\000@@\000\000\200?\000\000\200@\000\000\000@\000\000\200?\000\000@@\000\000@@\000\000@@\000\000\200@\000\000@@\000\000\000@\000\000\000\000\000\000\200?\000\000\000@\000\000\200@\000\000\200@\000\000@@\000\000\200@\000\000\240@\000\000\000@\000\000\000\000\000\000@@\000\000\300@\000\000@@\000\000\000@\000\000\200?\000\000\200@\000\000\000@\000\000\000\000\000\000\200@\000\000\200@\000\000\200?\000\000\000@\000\000@@\000\000\200?\000\000@@\000\000\000@\000\000\200@\000\000@@\000\000\000@\000\000@@\000\000@@\000\000@@\000\000\200@\000\000\240@\000\000\200@\000\000\000@\000\000@@\000\000\200@\000\000@@\000\000\000@\000\000@@\000\000\200?\000\000\000@\000\000@@\000\000@@\000\000\000\000\000\000\000@\000\000@@\000\000\200@\000\000\200?\000\000\000\000\000\000@@\000\000\240@\000\000\200@\000\000\240@\000\000\240@\000\000\340@\000\000\340@\000\000@@\000\000\240@\000\000@@\000\000@@\000\000\200?\000\000\000@\000\000\200@\000\000\200@\000\000\200@\000\000@@\000\000\200@\000\000\200@\000\000\000@\000\000\000@\000\000\200@\000\000@@\000\000\240@\000\000\240@\000\000@@\000\000@@\000\000@@\000\000\000@\000\000@@\000\000\240@\000\000\000@\000\000\200@\000\000\000@\000\000\000@\000\000@@\000\000@@\000\000@@\000\000\200@\000\000\240@\000\000@@\000\000\200@\000\000\000@\000\000@@\000\000\000@\000\000\240@\000\000\000@\000\000@@\000\000\240@\000\000\200@\000\000@@\000\000@@\000\000\000@\000\000@@\000\000\000\000\000\000\200@\000\000\300@\000\000\000\000\000\000\200?\000\000\000@\000\000\000A\000\000\200@\000\000\000@\000\000\200?\000\000@@\000\000@@\000\000\000@\000\000\200?\000\000@@\000\000@@\000\000@@\000\000\300@\000\000@@\000\000@@\000\000@@\000\000\000@\000\000@@\000\000\200@\000\000\000@\000\000\000@\000\000@@\000\000\200@\000\000@@\000\000\200@\000\000@@\000\000@@\000\000\300@\000\000\200@\000\000@@\000\000\000@\000\000@@\000\000@@\000\000\200@\000\000\240@\000\000\000@\000\000\000@\000\000@@\000\000\200@\000\000\200@\000\000\200?\000\000\000@\000\000\200@\000\000\200@\000\000\240@\000\000\000@\000\000\000@\000\000\000\000\000\000\000@\000\000\300@\000\000@@\000\000\240@\000\000\000@\000\000\200@\000\000\240@\000\000\000@\000\000\240@\000\000\200@\000\000@@\000\000@@\000\000\300@\000\000\000@\000\000@@\000\000\200@\000\000@@\000\000\000\000\000\000\000@\000\000\000\000\000\000@@\000\000\240@\000\000@@\000\000\200?\000\000\000@\000\000@@\000\000\000@\000\000\200@\000\000\200@\000\000\300@\000\000@@\000\000@@\000\000@@\000\000\200@\000\000\240@\000\000\000\000\000\000@@\000\000\200@\000\000\200@\000\000\000@\000\000\200@\000\000\000@\000\000\000@\000\000\200@\000\000\200@\000\000@@\000\000@@\000\000\000@\000\000\200@\000\000@@\000\000@@\000\000\200@\000\000@@\000\000\200@\000\000\000@\000\000@@\000\000\000@\000\000\200@\000\000\200@\000\000\240@\000\000@@\000\000\240@\000\000@@\000\000@@\000\000\300@\000\000@@\000\000@@\000\000\000\000\000\000\000@\000\000\240@\000\000@@\000\000\200@\000\000@@\000\000\200@\000\000@@\000\000\200@\000\000@@\000\000\000@\000\000@@\000\000\240@\000\000@@\000\000@@\000\000\000@\000\000\200?\000\000\000@\000\000\000\000\000\000\240@\000\000@@\000\000\200@\000\000\000@\000\000\200@\000\000\000@\000\000\200?\000\000\240@\000\000@@\000\000\200@\000\000\200@\000\000\200?\000\000\200?\000\000@@\000\000\300@\000\000\200@\000\000@@\000\000\200@\000\000\020A\000\000\200@\000\000@@\000\000\000@\000\000\200?\000\000@@\000\000@@\000\000@@\000\000\200@\000\000\000@\000\000\000@\000\000\300@\000\000\200@\000\000\200@\000\000\000@\000\000\200@\000\000\200@\000\000\000@\000\000\200@\000\000\240@\000\000\000A\000\000@@\000\000\240@\000\000\200@\000\000@@\000\000@@\000\000\200@\000\000\200?\000\000\000@\000\000@@\000\000@@\000\000\200@\000\000\000@\000\000@@\000\000\000@\000\000\200@\000\000\200?\000\000\200@\000\000\200@\000\000\340@\000\000@@\000\000\000\000\000\000\200@\000\000@@\000\000\000@\000\000\200@\000\000\200@\000\000\200?\000\000@@\000\000\200@\000\000\200@\000\000@@\000\000@@\000\000\000@\000\000@@\000\000\340@\000\000\000@\000\000\000\000\000\000\200?\000\000\200@\000\000@@\000\000\200@\000\000\000@\000\000\000@\000\000@@\000\000@@\000\000\200@\000\000\200@\000\000\000\000\000\000@@\000\000\200@\000\000\240@\000\000\300@\000\000\200@\000\000\240@\000\000@@\000\000\000@\000\000\200@\000\000\200@\000\000\200@\000\000@@\000\000\200@\000\000\000@\000\000\200@\000\000@@\000\000\200@\000\000\200@\000\000@@\000\000@@\000\000\000@\000\000\000@\000\000\240@\000\000\340@\000\000@A\000\000@@\000\000@@\000\000@@\000\000\300@\000\000\200@\000\000\000@\000\000\000@\000\000\200@\000\000@@\000\000\200@\000\000\000@\000\000@@\000\000\000@\000\000\200@\000\000@@\000\000@@\000\000\000@\000\000\200@\000\000\200@\000\000\240@\000\000@@\000\000\000@\000\000@@\000\000\300@\000\000@@\000\000\200@\000\000\000@\000\000@@\000\000\200@\000\000\240@\000\000@@\000\000\000\000\000\000@@\000\000\200?\000\000\200@\000\000\000A\000\000@@\000\000\000\000\000\000@@\000\000\000@\000\000\200?\000\000\200@\000\000\200@\000\000\000@\000\000@@\000\000\200@\000\000\000\000\000\000\000\000\000\000@@\000\000@@\000\000\000@\000\000\240@\000\000@@\000\000\200@\000\000\000@\000\000\200@\000\000\000@\000\000\240@\000\000\000@\000\000\000@\000\000@@\000\000\000@\000\000@@\000\000\000\000\000\000@@\000\000@@\000\000\000@\000\000\200@\000\000\240@\000\000\200@\000\000\200@\000\000\200?\000\000\000@\000\000\200@\000\000@@\000\000\200@\000\000@@\000\000@@\000\000\200@\000\000\240@\000\000@@\000\000\200@\000\000@@\000\000\300@\000\000\000@\000\000@A\000\000\000@\000\000\200@\000\000@@\000\000@@\000\000@@\000\000@@\000\000\200@\000\000\300@\000\000@@\000\000@@\000\000\200?\000\000\240@\000\000@@\000\000\240@\000\000@@\000\000\200@\000\000@@\000\000\200@\000\000\200?\000\000\200@\000\000\200@\000\000\240@\000\000@@\000\000\200?\000\000\200@\000\000\200@\000\000@@\000\000@@\000\000\200@\000\000@@\000\000@@\000\000@@\000\000\200@\000\000\200@\000\000\200?\000\000@@\000\000@@\000\000@@\000\000@@\000\000\000@\000\000@@\000\000\300@\000\000\240@\000\000\000@\000\000\000@\000\000@@\000\000@@\000\000@@\000\000@@\000\000@@\000\000\000@\000\000\000\000\000\000\200@\000\000@@\000\000\340@\000\000\200?\000\000\000A\000\000@@\000\000\200@\000\000\000@\000\000\240@\000\000@@\000\000\200@\000\000\000\000\000\000\200?\000\000\300@\000\000@@\000\000\240@\000\000\000@\000\000\200@\000\000@@\000\000\240@\000\000\200@\000\000\300@\000\000\240@\000\000@@\000\000\240@\000\000@@\000\000\000@\000\000@@\000\000\200@\000\000@@\000\000\200@\000\000\000@\000\000\000@\000\000\200?\000\000\000@\000\000@@\000\000@@\000\000\000\000\000\000@@\000\000@@\000\000@@\000\000\200@\000\000\000@\000\000\200@\000\000\300@\000\000@@\000\000\000@\000\000@@\000\000\200@\000\000\200?\000\000\000@\000\000\200@\000\000@@\000\000\200@\000\000@@\000\000\200@\000\000\200@\000\000\300@\000\000\000@\000\000\000@\000\000@@\000\000@@\000\000@@\000\000@@\000\000@@\000\000\200@\000\000\200?\000\000\000@\000\000\200@\000\000\000@\000\000\000\000\000\000\200@\000\000@@\000\000\000@\000\000\000\000\000\000@@\000\000\000@\000\000@@\000\000\200@\000\000\200@\000\000\000@\000\000@@\000\000\240@\000\000@@\000\000\000@\000\000\200?\000\000\000@\000\000@@\000\000@@\000\000\240@\000\000@@\000\000\200?\000\000@@\000\000@@\000\000\200@\000\000@@\000\000@@\000\000@@\000\000\200@\000\000@@\000\000@@\000\000\200@\000\000\240@\000\000@@\000\000@@\000\000\000@\000\000\200@\000\000\000@\000\000\000@\000\000\000@\000\000@@\000\000\200@\000\000@@\000\000\240@\000\000\200?\000\000@@\000\000\000@\000\000@@\000\000@@\000\000\200@\000\000\200@\000\000\000@\000\000\000@\000\000\000@\000\000\000\000\000\000\000@\000\000\000\000\000\000\000@\000\000@@\000\000\200@\000\000\000\000\000\000@@\000\000\300@\000\000\000@\000\000\300@\000\000\000@\000\000\200@\000\000\300@\000\000\240@\000\000@@\000\000\300@\000\000\340@\000\000\200@\000\000@@\000\000\200@\000\000@@\000\000@@\000\000\000\000\000\000@@\000\000\200@\000\000@@\000\000\200@\000\000\240@\000\000@@\000\000@@\000\000\200@\000\000\200@\000\000@@\000\000\000@\000\000@@\000\000@@\000\000@@\000\000@@\000\000\340@\000\000\200@\000\000\240@\000\000\240@\000\000\200@\000\000\200@\000\000@@\000\000@@\000\000@@\000\000@@\000\000@@\000\000\000@\000\000\200@\000\000\000@\000\000@@\000\000\200@\000\000@@\000\000\200@\000\000\200@\000\000@@\000\000\200@\000\000\000@\000\000\000@\000\000\000@\000\000@@\000\000@@\000\000\200@\000\000@@\000\000\000@\000\000\200@\000\000@@\000\000\200@\000\000\200@\000\000\000@\000\000\200?\000\000\000@\000\000\000@\000\000\000@\000\000@@\000\000\000@\000\000\300@\000\000\000@\000\000@@\000\000\300@\000\000@@\000\000\000\000\000\000\200@\000\000\200@\000\000\000@\000\000\240@\000\000@@\000\000\200@\000\000\240@\000\000\200?\000\000@@\000\000@@\000\000\200@\000\000\200@\000\000@@\000\000@@\000\000@@\000\000\000@\000\000\200@\000\000\000\000\000\000\200@\000\000@@\000\000\000@\000\000@@\000\000\000@\000\000\240@\000\000\200?\000\000\000@\000\000\240@\000\000@@\000\000\300@\000\000\200@\000\000\200@\000\000@@\000\000@@\000\000@@\000\000@@\000\000\300@\000\000\000\000\000\000\240@\000\000@@\000\000\300@\000\000\240@\000\000\000@\000\000\000@\000\000@@\000\000\240@\000\000\200@\000\000@@\000\000\200?\000\000@@\000\000\200@\000\000\200@\000\000\000@\000\000\200@\000\000\000@\000\000@@\000\000\000@\000\000\000@\000\000@@\000\000@@\000\000@@\000\000@@\000\000\000@\000\000\000\000\000\000@@\000\000\200@\000\000@@\000\000\000@\000\000\000@\000\000@@\000\000\200?\000\000@@\000\000\300@\000\000\000@\000\000\240@\000\000\200@\000\000\240@\000\000\200@\000\000@@\000\000\200@\000\000@@\000\000\200?\000\000\300@\000\000@@\000\000\200@\000\000\200@\000\000\200@\000\000\000@\000\000\240@\000\000\000@\000\000\200@\000\000@@\000\000\200@\000\000\200@\000\000@@\000\000\200@\000\000@@\000\000@@\000\000@@\000\000\200?\000\000@@\000\000\000A\000\000@@\000\000\000\000\000\000\200@\000\000\000@\000\000\240@\000\000\000@\000\000\000\000\000\000\000@\000\000\000\000\000\000@@\000\000\200?\000\000@@\000\000\240@\000\000\000\000\000\000\200@\000\000@@\000\000\000@\000\000\240@\000\000\000@\000\000@@\000\000\200@\000\000\200@\000\000@@\000\000\000@\000\000@@\000\000@@\000\000@@\000\000\000\000\000\000\200@\000\000\240@\000\000\240@\000\000\200?\000\000@@\000\000\240@\000\000\000@\000\000\200@\000\000@@\000\000\000@\000\000@@\000\000@@\000\000\000\000\000\000@@\000\000\000@\000\000@@\000\000\000@\000\000\200@\000\000\200@\000\000\000@\000\000@@\000\000@@\000\000@@\000\000\000@\000\000@@\000\000\000@\000\000\200@\000\000\000\000\000\000\200?\000\000\200@\000\000\000\000\000\000\000@\000\000\000\000\000\000\000@\000\000\000@\000\000\200?\000\000\240@\000\000@@\000\000\000\000\000\000\200@\000\000@@\000\000\000@\000\000@@\000\000@@\000\000\200@\000\000@@\000\000\000\000\000\000\240@\000\000@@\000\000\200@\000\000@@\000\000\000@\000\000@@\000\000\240@\000\000\240@\000\000@@\000\000\000@\000\000@@\000\000\200@\000\000@@\000\000\000@\000\000\240@\000\000@@\000\000@@\000\000\200@\000\000\200@\000\000\200@\000\000\240@\000\000\200@\000\000\200@\000\000@@\000\000\240@\000\000\000@\000\000\000\000\000\000\200@\000\000@@\000\000\200@\000\000\240@\000\000\200?\000\000@@\000\000\000@\000\000\200@\000\000\200?\000\000@@\000\000\200?\000\000\000@\000\000\200@\000\000\200@\000\000\300@\000\000\200@\000\000\000\000\000\000\000@\000\000@@\000\000\200?\000\000@@\000\000\300@\000\000\000@\000\000\000\000\000\000\240@\000\000\200@\000\000\200?\000\000@@\000\000\240@\000\000\200@\000\000\240@\000\000\200@\000\000\240@\000\000\200@\000\000\200@\000\000\000@\000\000\200@\000\000\200@\000\000@@\000\000@@\000\000\200@\000\000@@\000\000\240@\000\000\200@\000\000\200@\000\000@@\000\000@@\000\000\000@\000\000\000@\000\000\200@\000\000@@\000\000@@\000\000\200@\000\000\240@\000\000@@\000\000\000@\000\000@@\000\000@@\000\000@@\000\000\000@\000\000\000@\000\000\200?\000\000@@\000\000\240@"
      }
    }
  }
}
node {
  name: "Const_1"
  op: "Const"
  attr {
    key: "_output_shapes"
    value {
      list {
        shape {
          dim {
            size: 1855
          }
        }
      }
    }
  }
  attr {
    key: "dtype"
    value {
      type: DT_FLOAT
    }
  }
  attr {
    key: "value"
    value {
      tensor {
        dtype: DT_FLOAT
        tensor_shape {
          dim {
            size: 1855
          }
        }
        tensor_content: "\000\000@@\000\000@@\000\000@@\000\000\240@\000\000\340@\000\000\200?\000\000\000@\000\000@@\000\000\240@\000\000\000@\000\000@@\000\000 @\000\000\000@\000\000 @\000\000\240@\000\000@@\000\000@@\000\000\200?\000\000@@\000\000@@\000\000\000@\000\000\000\000\000\000@@\000\000\000@\000\000\300@\000\000 @\000\000 @\000\000\200?\000\000\000\000\000\000@@\000\000\000@\000\000\000@\000\000\000A\000\000\300@\000\000\200@\000\000@@\000\000@@\000\000@@\000\000\340@\000\000@@\000\000 @\000\000\200@\000\000\200?\000\000\000@\000\000\000\000\000\000 @\000\000 A\000\000\240@\000\000\000@\000\000\000@\000\000\200@\000\000\360@\000\000\000@\000\000@@\000\000\240@\000\000@@\000\000\000@\000\000\200?\000\000@@\000\000\300?\000\000\200?\000\000\000@\000\000\000@\000\000\000\000\000\000@@\000\000\220@\000\000@@\000\000@@\000\000@@\000\000\000@\000\000\000@\000\000\000@\000\000\000@\000\000@@\000\000\000@\000\000\220@\000\000\200?\000\000@@\000\000\000@\000\000\000@\000\000\000@\000\000@@\000\000\200?\000\000@@\000\000\000@\000\000\200?\000\000\200@\000\000 @\000\000@@\000\000\000@\000\000\200@\000\000@@\000\000\000@\000\000\200?\000\000\240@\000\000@@\000\000@@\000\000@@\000\000\200@\000\000@@\000\000\020A\000\000\000@\000\000@@\000\000@@\000\000\000@\000\000\000@\000\000\000@\000\000@@\000\000@@\000\000\000@\000\000\240@\000\000@@\000\000@@\000\000\200@\000\000@@\000\000\000@\000\000@@\000\000\220@\000\000\240@\000\000@@\000\000\000@\000\000\000@\000\000\000@\000\000@@\000\000\200?\000\000\000@\000\000\200@\000\000\000@\000\000 @\000\000\000@\000\000\200?\000\000\000@\000\000\000\000\000\000\200@\000\000\200?\000\000\200@\000\000\000@\000\000@@\000\000\000@\000\000@@\000\000@@\000\000@@\000\000\340@\000\000\000@\000\000\200?\000\000\000@\000\000\000@\000\000\200@\000\000 @\000\000@@\000\000\000@\000\000\000@\000\000\000@\000\000@@\000\000@@\000\000@@\000\000\000@\000\000\340@\000\000@@\000\000\000\000\000\000@@\000\000\000@\000\000\000@\000\000\000@\000\000\200?\000\000\000@\000\000\200?\000\000\000\000\000\000@@\000\000@@\000\000@@\000\000\000@\000\000@@\000\000\200?\000\000\000@\000\000\000@\000\000\000@\000\000\200@\000\000\300?\000\000\000@\000\000\200?\000\000\000@\000\000\000@\000\000\300@\000\000@@\000\000\200@\000\000\000@\000\000\200?\000\000\000@\000\000@@\000\000\200?\000\000@@\000\000`@\000\000\000@\000\000\000\000\000\000@@\000\000@@\000\000@@\000\000\300?\000\000@@\000\000\000@\000\000\240@\000\000\340@\000\000\000@\000\000\000@\000\000\220@\000\000\000\000\000\000@@\000\000@@\000\000\300?\000\000\000@\000\000\200@\000\000\200@\000\000\240@\000\000@@\000\000\200?\000\000\000\000\000\000\200?\000\000\000@\000\000@@\000\000@@\000\000\240@\000\000\000@\000\000\000@\000\000\200@\000\000\200?\000\000\340@\000\000\000@\000\000\000@\000\000\000@\000\000@@\000\000\000@\000\000\200?\000\000@@\000\000@@\000\000@@\000\000\240@\000\000\000@\000\000\000@\000\000\000@\000\000\200?\000\000\300@\000\000@@\000\000@@\000\000\200?\000\000\200?\000\000\000@\000\000\200?\000\000\000@\000\000\200?\000\000@@\000\000\000@\000\000\000@\000\000\000@\000\000\200?\000\000\000\000\000\000@@\000\000\000@\000\000\240@\000\000\200?\000\000\200?\000\000\000@\000\000\200?\000\000 A\000\000\000@\000\000@@\000\000@@\000\000\200@\000\000\200@\000\000@@\000\000\000@\000\000 @\000\000\000@\000\000\000\000\000\000\000@\000\000\200?\000\000\000@\000\000@@\000\000\000@\000\000\200?\000\000\000@\000\000@@\000\000\200@\000\000\000@\000\000\220@\000\000\340@\000\000\000@\000\000\200?\000\000\000@\000\000\200@\000\000@@\000\000\000@\000\000\000@\000\000\000@\000\000\000\000\000\000@@\000\000\200@\000\000\200@\000\000@@\000\000\000@\000\000\000\000\000\000@@\000\000\000@\000\000@@\000\000@@\000\000\260@\000\000\200?\000\000\000@\000\000\000@\000\000\020@\000\000\000@\000\000\200?\000\000\000@\000\000\000@\000\000\000@\000\000\000@\000\000@@\000\000\000\000\000\000\200?\000\000\000@\000\000\200?\000\000\200@\000\000 @\000\000\200?\000\000\000@\000\000\000@\000\000\200?\000\000@@\000\000\200?\000\000\200?\000\000\000@\000\000\000@\000\000@@\000\000@@\000\000@A\000\000\000@\000\000\000@\000\000\000@\000\000`@\000\000@@\000\000\000@\000\000\200@\000\000@@\000\000\000@\000\000@@\000\000\200?\000\000\000\000\000\000\240@\000\000@@\000\000\000@\000\000\000@\000\000\000@\000\000@@\000\000\200?\000\000@@\000\000@@\000\000@@\000\000\200@\000\000\200?\000\000\000@\000\000\000@\000\000\000A\000\000\340@\000\000\200?\000\000@@\000\000\220@\000\000\200?\000\000\000@\000\000\000@\000\000\000@\000\000\000@\000\000\000\000\000\000\300@\000\000@@\000\000@@\000\000\000@\000\000@@\000\000\240@\000\000@@\000\000\000@\000\000\000@\000\000@@\000\000\200?\000\000\200?\000\000 @\000\000\000@\000\000\000@\000\000\000\000\000\000@@\000\000\000@\000\000`@\000\000\000@\000\000\000@\000\0000A\000\000@@\000\000\200?\000\000\200?\000\000\000@\000\000@@\000\000\000@\000\000\300@\000\000@@\000\000\000@\000\000@@\000\000\000@\000\000\240@\000\000\000A\000\000\000@\000\000\000@\000\000\200?\000\000@@\000\000\000@\000\000\000@\000\000\000@\000\000\000@\000\000\000@\000\000@@\000\000\000@\000\000\300?\000\000`@\000\000\200@\000\000\200@\000\000@@\000\000\300?\000\000\200?\000\000\200?\000\000@@\000\000\000\000\000\000\200?\000\000@@\000\000 @\000\000\200?\000\000\200?\000\000\000@\000\000\000\000\000\000\000@\000\000\300@\000\000@@\000\000\200?\000\000\000@\000\000\000@\000\000\300@\000\000\200?\000\000@@\000\000\000@\000\000@@\000\000@@\000\000\000@\000\000\000@\000\000\000@\000\000\000@\000\000\000@\000\000@@\000\000\200?\000\000\300?\000\000\000@\000\000\000@\000\000\000@\000\000\000@\000\000@@\000\000\000@\000\000\000@\000\000\000@\000\000@@\000\000\200@\000\000\000@\000\000\200?\000\000\000@\000\000 @\000\000\000@\000\000\000@\000\000\000@\000\000\000\000\000\000\020A\000\000\000@\000\000\200?\000\000@@\000\000@@\000\000\200?\000\000\320@\000\000@@\000\000\240@\000\000@@\000\000\000\000\000\000\000@\000\000\300@\000\000\000A\000\000\200@\000\000\000@\000\000\340@\000\000\200@\000\000\000@\000\000\000@\000\000\000@\000\000`@\000\000\200@\000\000@@\000\000\200?\000\000\000@\000\000\000@\000\000\000@\000\000\000@\000\000\000@\000\000\000@\000\000\240@\000\000\300?\000\000\200?\000\000\200@\000\000\200?\000\000\200?\000\000\200?\000\000\000@\000\000\000@\000\000@@\000\000\000@\000\000@@\000\000@@\000\000\000@\000\000`@\000\000@@\000\000\200@\000\000\000@\000\000\000\000\000\000\000@\000\000\000@\000\000\000@\000\000\000@\000\000\000@\000\000\000@\000\000\000\000\000\000\000A\000\000\000\000\000\000\300@\000\000\000@\000\000\000@\000\000\000@\000\000\200@\000\000@@\000\000\200?\000\000\000@\000\000\000@\000\000@@\000\000\000@\000\000\000\000\000\000\240@\000\000\000@\000\000@@\000\000\300@\000\000\000@\000\000\240@\000\000@@\000\000\000@\000\000\000@\000\000\000@\000\000\000@\000\000\000@\000\000\200?\000\000\000@\000\000@@\000\000\200?\000\000\000@\000\000\200?\000\000@@\000\000@@\000\000@@\000\000\000@\000\000\300?\000\000@@\000\000\000@\000\000 @\000\000\000@\000\000@@\000\000\240@\000\000@@\000\000\000@\000\000\200@\000\000\000@\000\000\000\000\000\000@@\000\000\200?\000\000@@\000\000\000\000\000\000\000@\000\000\000@\000\000@@\000\000\000@\000\000\000@\000\000\240@\000\000\000@\000\000 @\000\000\000@\000\000\200?\000\000\000@\000\000\200?\000\000 @\000\000@@\000\000\200?\000\000\000@\000\000\200@\000\000\000@\000\000\000@\000\000\000@\000\000\200?\000\000\200@\000\000\000@\000\000\200@\000\000\000@\000\000@@\000\000\200@\000\000\340@\000\000\000@\000\000\000@\000\000\000@\000\000\300?\000\000\200?\000\000\000@\000\000@@\000\000@@\000\000\000@\000\000\000@\000\000\200@\000\000\200@\000\000\300@\000\000\000@\000\000\000@\000\000\200@\000\000\000@\000\000\000@\000\000\200?\000\000\200?\000\000\200?\000\000 @\000\000@@\000\000\000@\000\000\000@\000\000\240@\000\000\000@\000\000\200?\000\000\000@\000\000\000@\000\000\200?\000\000\000@\000\000`@\000\000\000@\000\000@@\000\000@@\000\000\000@\000\000@@\000\000 @\000\000\200?\000\000\200?\000\000\000@\000\000\000@\000\000\200@\000\000\000@\000\000\200?\000\000\240@\000\000@@\000\000\240@\000\000\200?\000\000\000@\000\000\200?\000\000\340@\000\000\200?\000\000\240@\000\000\000@\000\000\000@\000\000\000@\000\000@@\000\000\200?\000\000\000@\000\000\300?\000\000\000@\000\000\000@\000\000\200?\000\000\000@\000\000@@\000\000@@\000\000\000@\000\000\000@\000\000 @\000\000@@\000\000\000@\000\000\200?\000\000\000@\000\000@@\000\000\000@\000\000\000@\000\000\000@\000\000\240@\000\000\000@\000\000\000@\000\000@@\000\000@@\000\000@@\000\000\000\000\000\000\000@\000\000@@\000\000@@\000\000@@\000\000\200?\000\000\000\000\000\000@@\000\000 @\000\000\000\000\000\000\000@\000\000@@\000\000\000@\000\000\200@\000\000@@\000\000\200@\000\000\000@\000\000\000@\000\000\000@\000\000@@\000\000@@\000\000\200?\000\000\000@\000\000\000@\000\000\200@\000\000\300@\000\000\000@\000\000\300@\000\000\240@\000\000\000@\000\000\200?\000\000\200?\000\000 @\000\000\200?\000\000\200@\000\000\240@\000\000@@\000\000\000@\000\000@@\000\000\200@\000\000\000@\000\000\000\000\000\000\200@\000\000\240@\000\000@@\000\000\000@\000\000\000@\000\000\200?\000\000\000@\000\000\200?\000\000\200?\000\000\000@\000\000\000@\000\000\000@\000\000@@\000\000\000@\000\000\000@\000\000\000\000\000\000@@\000\000\200?\000\000@@\000\000\200?\000\000@@\000\000\000@\000\000\000@\000\000\200?\000\000@@\000\000\200@\000\000\200@\000\000@@\000\000\000@\000\000@@\000\000`@\000\000\000@\000\000@@\000\000\200?\000\000\000@\000\000\000@\000\000@@\000\000\200@\000\000@@\000\000\000@\000\000\200?\000\000 @\000\000\200?\000\000@@\000\000\200@\000\000\000@\000\000\000@\000\000\000@\000\000\240@\000\000\000@\000\000\000@\000\000\000@\000\000\200@\000\000\000@\000\000 @\000\000\200?\000\000\000@\000\000\000@\000\000@@\000\000@@\000\000\000@\000\000\200?\000\000\300@\000\000\000@\000\000@@\000\000\000@\000\000\000\000\000\000\200?\000\000 @\000\000\000@\000\000\200?\000\000@@\000\000\300?\000\000\000@\000\000\200@\000\000\240@\000\000\200?\000\000\300?\000\000\240@\000\000\200?\000\000\000@\000\000\000@\000\000@@\000\000@@\000\000@@\000\000@@\000\000 A\000\000\000@\000\000@@\000\000\000@\000\000\000@\000\000\240@\000\000 @\000\000\000@\000\000 A\000\000@@\000\000@@\000\000\000@\000\000\000\000\000\000\000@\000\000@@\000\000\000@\000\000\000@\000\000\000@\000\000@@\000\000\200?\000\000\000@\000\000\000@\000\000\000@\000\000@@\000\000\200@\000\000\300@\000\000\000@\000\000\000@\000\000\000@\000\000\200@\000\000 @\000\000\200?\000\000\000@\000\000 @\000\000@@\000\000\020A\000\000\000\000\000\000\000\000\000\000@@\000\000\200?\000\000\000@\000\000\300@\000\000\200@\000\000@@\000\000\000@\000\000\000@\000\000\240@\000\000@@\000\000\200@\000\000\200@\000\000\200@\000\000\300?\000\000\200?\000\000\240@\000\000\200?\000\000\200?\000\000\000@\000\000\000@\000\000\300?\000\000@@\000\000@@\000\000\200?\000\000\000\000\000\000\000@\000\000\200?\000\000@@\000\000@@\000\000\000@\000\000@@\000\000\200@\000\000\000@\000\000\000\000\000\000\000@\000\000 @\000\000@@\000\000\000@\000\000\200?\000\000\200@\000\000\200?\000\000\200?\000\000\200@\000\000@@\000\000\000@\000\000\200?\000\000@@\000\000\000@\000\000\000@\000\000\200?\000\000@@\000\000@@\000\000@@\000\000\000@\000\000\200?\000\000\000@\000\000@@\000\000@@\000\000@@\000\000\000@\000\000\000@\000\000@@\000\000\000@\000\000\000@\000\000 @\000\000\200?\000\000 @\000\000\000@\000\000\200@\000\000\000\000\000\000\000@\000\000@@\000\000@@\000\000\200?\000\000\200?\000\000\300?\000\000\200@\000\000@@\000\000@A\000\000@@\000\000@@\000\000\030A\000\000\000@\000\000@@\000\000\200@\000\000 @\000\000\200?\000\000\000@\000\000@@\000\000@@\000\000@@\000\000\000@\000\000\000@\000\000\000@\000\000\000@\000\000\200?\000\000\200@\000\000\000@\000\000\000@\000\000\300@\000\000@@\000\000\200?\000\000\000@\000\000\000@\000\000\000@\000\000\240@\000\000\000@\000\000`@\000\000\200@\000\000\000@\000\000\000@\000\000\200?\000\000\000@\000\000\000@\000\000@@\000\000\000@\000\000@@\000\000\000@\000\000 @\000\000\000@\000\000 @\000\000\000@\000\000\000@\000\000@@\000\000@@\000\000\000@\000\000\200@\000\000\000@\000\000\000@\000\000\200?\000\000\000@\000\000\300@\000\000\200?\000\000\200?\000\000 @\000\000\240@\000\000\000@\000\000\200?\000\000\200?\000\000@@\000\000@@\000\000\000@\000\000\300?\000\000`@\000\000 @\000\000\000@\000\000@@\000\000\000@\000\000\000@\000\000\200@\000\000\200?\000\000@@\000\000\200@\000\000\000@\000\000\200?\000\000@@\000\000\200@\000\000@@\000\000\300@\000\000\000@\000\000 @\000\000\200@\000\000@@\000\000 @\000\000@@\000\000\200?\000\000`@\000\000\000@\000\000@@\000\000\000@\000\000\200?\000\000\000@\000\000\200@\000\000\000@\000\000\200?\000\000\000@\000\000\200@\000\000 @\000\000@@\000\000\200?\000\000\000@\000\000\000\000\000\000\000@\000\0000A\000\000\000@\000\000@@\000\000\000@\000\000\000@\000\000\200@\000\000\000@\000\000\300@\000\000\000@\000\000@@\000\000@@\000\000\340@\000\000\000@\000\000\000@\000\000@@\000\000\000@\000\000\200?\000\000\000@\000\000\000\000\000\000\000@\000\000\240@\000\000@@\000\000\200?\000\000\200?\000\000@@\000\000@@\000\000`@\000\000@@\000\000\200@\000\000\000@\000\000@@\000\000\000@\000\000\000@\000\000\200@\000\000\000\000\000\000\000@\000\000\000@\000\000@@\000\000\000@\000\000@@\000\000\000@\000\000\200?\000\000\240@\000\000@@\000\000\200@\000\000\000@\000\000\000@\000\000@@\000\000\000@\000\000 @\000\000@@\000\000 @\000\000@@\000\000\000@\000\000\000@\000\000\000@\000\000\200@\000\000@@\000\000@@\000\000\000@\000\000\300@\000\000\000@\000\000\000@\000\000\240@\000\000\000@\000\000\200?\000\000\200?\000\000\000@\000\000\240@\000\000\000@\000\000\000\000\000\000@@\000\000\000@\000\000@@\000\000@@\000\000@@\000\000\000@\000\000\000@\000\000@@\000\000\220@\000\000@@\000\000\000@\000\000\200?\000\000@@\000\000\000\000\000\000\000@\000\000\000@\000\000\240@\000\000\000@\000\000\200@\000\000\000@\000\000\200?\000\000\200@\000\000\000@\000\000\000@\000\000\200@\000\000\300?\000\000\300?\000\000\000@\000\000\340@\000\000\200@\000\000\200@\000\000\200@\000\000\240@\000\000\200@\000\000@@\000\000\000@\000\000\000@\000\000\000@\000\000 @\000\000\200?\000\000\000@\000\000\000@\000\000\200?\000\000\240@\000\000@@\000\000\000@\000\000\000@\000\000\200@\000\000\240@\000\000\200?\000\000\200@\000\000\240@\000\000\360@\000\000\200?\000\000\300@\000\000@@\000\000\000@\000\000@@\000\000 @\000\000\200?\000\000\200?\000\000\000@\000\000@@\000\000\240@\000\000\200?\000\000\000@\000\000\000@\000\000@@\000\000\000@\000\000\000@\000\000@@\000\000\000A\000\000@@\000\000\200?\000\000@@\000\000@@\000\000\000@\000\000\000@\000\000\300@\000\000\200?\000\000@@\000\000@@\000\000@@\000\000\000@\000\000\020@\000\000\000@\000\000\000@\000\000\240@\000\000\000@\000\000\000\000\000\000\000@\000\000@@\000\000@@\000\000\200@\000\000\000@\000\000\000@\000\000\200?\000\000@@\000\000\240@\000\000\000@\000\000\200?\000\000\000@\000\000\000@\000\000\240@\000\000\300@\000\000\000@\000\000\240@\000\000@@\000\000\000@\000\000\240@\000\000\000@\000\000@@\000\000\000@\000\000@@\000\000\200?\000\000\200@\000\000\000@\000\000@@\000\000\000@\000\000@@\000\000@@\000\000\000@\000\000\000@\000\000@@\000\000\200@\000\000pA\000\000\000@\000\000\000@\000\000@@\000\000\240@\000\000\000@\000\000\000@\000\000\200?\000\000 @\000\000\000@\000\000@@\000\000\200?\000\000 @\000\000\200?\000\000@@\000\000@@\000\000\000@\000\000\000@\000\000@@\000\000\000@\000\000\200@\000\000@@\000\000\000@\000\000\200?\000\000\000A\000\000\000@\000\000@@\000\000\200?\000\000\000@\000\000@@\000\000\200@\000\000\200?\000\000\000\000\000\000@@\000\000\300?\000\000\000@\000\000\000A\000\000\000@\000\000\000\000\000\000\000@\000\000\000@\000\000\200?\000\000\200@\000\000@@\000\000\200?\000\000\000@\000\000\000@\000\000\000\000\000\000\200?\000\000@@\000\000\000@\000\000@@\000\000\300@\000\000\200?\000\000\200@\000\000\000@\000\000@@\000\000@@\000\000\320@\000\000\000@\000\000@@\000\000\200?\000\000\000@\000\000@@\000\000\000\000\000\000\000@\000\000@@\000\000\000@\000\000\300@\000\000\200@\000\000@@\000\000\200@\000\000\200?\000\000\000@\000\000\000@\000\000@@\000\000\200@\000\000\000@\000\000\000@\000\000@@\000\000\300@\000\000\000@\000\000@@\000\000@@\000\000@@\000\000\000@\000\000\300@\000\000\200?\000\000\200@\000\000\300?\000\000@@\000\000@@\000\000\000@\000\000\000@\000\000\260@\000\000\200?\000\000\000@\000\000\200?\000\000\300@\000\000\000@\000\000\000A\000\000\200?\000\000\000@\000\000\220@\000\000\200@\000\000\200?\000\000@@\000\000\240@\000\000@@\000\000@@\000\000\200?\000\000@@\000\000\000@\000\000\000@\000\000\000@\000\000@@\000\000\000@\000\000\200@\000\000\200?\000\000\000@\000\000 @\000\000\200?\000\000\000@\000\000\000@\000\000\000@\000\000\200?\000\000 @\000\000\000@\000\000@@\000\000\200@\000\000\000@\000\000\000@\000\000@@\000\000\000@\000\000@@\000\000@@\000\000@@\000\000\200?\000\000\000\000\000\000`@\000\000\000@\000\000\300@\000\000\200?\000\000\020A\000\000 @\000\000 @\000\000\000@\000\000\200@\000\000@@\000\000 @\000\000\000\000\000\000\200?\000\000\200@\000\000\000@\000\000@@\000\000\000@\000\000\000@\000\000\000@\000\000\240@\000\000\000@\000\000\360@\000\000@@\000\000\000@\000\000@@\000\000@@\000\000\200?\000\000\000@\000\000@@\000\000@@\000\000\000@\000\000\200?\000\000 @\000\000\000@\000\000@@\000\000\000@\000\000\000@\000\000\000\000\000\000\200?\000\000@@\000\000\000@\000\000@@\000\000\000@\000\000@@\000\000@@\000\000@@\000\000\000@\000\000\000@\000\000@@\000\000\200?\000\000\200?\000\000\200@\000\000@@\000\000\200@\000\000\200?\000\000@@\000\000\200@\000\000\300@\000\000\000@\000\000\000@\000\000\000@\000\000\000@\000\000@@\000\000\200@\000\000@@\000\000\200@\000\000\000@\000\000\000@\000\000@@\000\000\200?\000\000\000\000\000\000@@\000\000\000@\000\000\000@\000\000\000\000\000\000@@\000\000\200?\000\000@@\000\000\240@\000\000@@\000\000\200?\000\000\200?\000\000@@\000\000\000@\000\000\200?\000\000\200?\000\000@@\000\000\000@\000\000\000@\000\000\300@\000\000@@\000\000\200?\000\000`@\000\000\000@\000\000\000@\000\000\000@\000\000\200?\000\000\000@\000\000\000@\000\000@@\000\000\000@\000\000 @\000\000\240@\000\000\000@\000\000@@\000\000\000@\000\000 @\000\000\200?\000\000\200?\000\000\000@\000\000\000@\000\000\200@\000\000\000@\000\000@@\000\000\200?\000\000\200@\000\000\000@\000\000\000@\000\000@@\000\000\200?\000\000\240@\000\000\000@\000\000@@\000\000\000@\000\000\200?\000\000\000@\000\000\200?\000\000\200?\000\000@@\000\000@@\000\000\200?\000\000@@\000\000\200@\000\000\000@\000\000\240@\000\000\000@\000\000@@\000\000\300@\000\000\020A\000\000@@\000\000\000\000\000\000\200@\000\000@@\000\000\000@\000\000\200@\000\000@@\000\000`@\000\000\000\000\000\000\200@\000\000\200@\000\000\000@\000\000\200@\000\000@@\000\000@@\000\000 @\000\000\000@\000\000@@\000\000\000@\000\000\200?\000\000 @\000\000\000@\000\000@@\000\000\000@\000\000\000A\000\000\200@\000\000\200@\000\000\340@\000\000\300@\000\000\300@\000\000\000@\000\000\000@\000\000\000@\000\000\000@\000\000@@\000\000\000@\000\000\000@\000\000\200?\000\000@@\000\000@@\000\000@@\000\000\000\000\000\000\000@\000\000\000@\000\000\240@\000\000\000@\000\000\300?\000\000\000@\000\000\000@\000\000@@\000\000@@\000\000@@\000\000\000@\000\000@@\000\000@@\000\000@@\000\000@@\000\000\000@\000\000\200?\000\000\200?\000\000\200?\000\000\000@\000\000 @\000\000\000@\000\000\240@\000\000\000@\000\000\000@\000\000 A\000\000\000@\000\000\000\000\000\000 @\000\000@@\000\000\200?\000\000\340@\000\000\000@\000\000\000@\000\000@@\000\000\200?\000\000\200?\000\000@@\000\000\000@\000\000@@\000\000\200?\000\000@@\000\000\000@\000\000\200?\000\000\240@\000\000\000\000\000\000\220@\000\000@@\000\000@@\000\000\000@\000\000\000@\000\000@@\000\000\200?\000\000\000@\000\000\240@\000\000\000@\000\000\300@\000\000\000@\000\000@@\000\000\000@\000\000\000@\000\000@@\000\000\000@\000\000@@\000\000\000\000\000\000@@\000\000\200@\000\000\340@\000\000\200@\000\000\000@\000\000\000@\000\000\000@\000\000\200@\000\000\000@\000\000\200?\000\000\000@\000\000 @\000\000@@\000\000\200@\000\000 @\000\000\000@\000\000\000@\000\000@@\000\000\200?\000\000\000@\000\000\200?\000\000\200@\000\000\200?\000\000\000@\000\000\200?\000\000\000\000\000\000\200?\000\000@@\000\000\000@\000\000\200?\000\000\000@\000\000\000@\000\000\000@\000\000\000@\000\000\000A\000\000\000@\000\000\200@\000\000@@\000\000\240@\000\000`@\000\000\000@\000\000\000@\000\000@@\000\000\200?\000\000@@\000\000@@\000\000@@\000\000\300@\000\000@@\000\000\000@\000\000\200@\000\000@@\000\000 @\000\000\000@\000\000@@\000\000@@\000\000\000@\000\000\200@\000\000\200?\000\000@@\000\000\000@\000\000\200?\000\000\000@\000\0000A\000\000@@\000\000\200?\000\000\000@\000\000\200?\000\000\000@\000\000\200?\000\000\200?\000\000 @\000\000\000\000\000\000\200?\000\000\000@\000\000@@\000\000\240@\000\000\000\000\000\000\200@\000\000\240@\000\000\000@\000\000\300@\000\000\000@\000\000\200@\000\000\220@\000\000@@\000\000@@\000\000@@\000\000@@\000\000\000@\000\000\000@\000\000\000\000\000\000\240@\000\000\300@\000\000\000A\000\000\200?\000\000@@\000\000\200@\000\000\000@\000\000\000@\000\000\200?\000\000\000@\000\000@@\000\000@@\000\000\000\000\000\000\200@\000\000\200?\000\000\000@\000\000@@\000\000\220@\000\000\000@\000\000\200?\000\000\000@\000\000\200?\000\000\200?\000\000\200?\000\000\000@\000\000\000@\000\000\240@\000\000\000\000\000\000\200?\000\000@@\000\000\000\000\000\000\000@\000\000\200?\000\000\200?\000\000\200?\000\000\200?\000\000@@\000\000\200@\000\000\200?\000\000\200@\000\000 @\000\000\000@\000\000\000@\000\000\000@\000\000@@\000\000\000@\000\000\000\000\000\000@@\000\000\000@\000\000\200@\000\000\200?\000\000\200?\000\000\000@\000\000\240@\000\000@@\000\000\000@\000\000\200?\000\000@@\000\000\000@\000\000\000@\000\000\200?\000\000@@\000\000@@\000\000\000@\000\000\200?\000\000\000@\000\000@@\000\000@@\000\000\240@\000\000\000@\000\000@@\000\000\200@\000\000\000@\000\000\000\000\000\000@@\000\000\200?\000\000@@\000\000\240@\000\000\200?\000\000\000@\000\000 @\000\000\000@\000\000\200?\000\000\000@\000\000\200?\000\000\000@\000\000\000@\000\000\000@\000\000\000@\000\000\000@\000\000\000\000\000\000\200?\000\000@@\000\000\200?\000\000\000@\000\000\320@\000\000\200?\000\000\000\000\000\000\300@\000\000\000@\000\000\200?\000\000\200?\000\000\240@\000\000\000@\000\000\200@\000\000@@\000\000\240@\000\000@@\000\000\000@\000\000\000@\000\000@@\000\000@@\000\000\200@\000\000\000@\000\000\200@\000\000\000@\000\000@@\000\000@@\000\000\000@\000\000@@\000\000\200?\000\000\000@\000\000\000@\000\000\200@\000\000\000@\000\000\000@\000\000\200@\000\000@@\000\000\000@\000\000\200?\000\000\000@\000\000\000@\000\000@@\000\000\000@\000\000\200?\000\000\200?\000\000\000@\000\000p@"
      }
    }
  }
}
node {
  name: "Const_2"
  op: "Const"
  attr {
    key: "_output_shapes"
    value {
      list {
        shape {
          dim {
            size: 1855
          }
        }
      }
    }
  }
  attr {
    key: "dtype"
    value {
      type: DT_FLOAT
    }
  }
  attr {
    key: "value"
    value {
      tensor {
        dtype: DT_FLOAT
        tensor_shape {
          dim {
            size: 1855
          }
        }
        tensor_content: "\000`\355D\000 \325D\000@gE\000(\206E\000\300\227E\000\000zD\000\340\212D\000\300\375D\000\000\177E\000@\226D\000\000\\D\000\000\310D\000`\256D\000@\327D\000\300\203E\000@\022E\000\340\226D\000\000\322C\000\000\026E\000\000\026E\000\300\213D\000\270\272E\000`)E\000\000\214D\000P\264E\000\000\372D\000 \370D\000\200oD\000P\233E\000\300\010E\000\300\225D\000\200\245D\000\014\037F\000\030\314E\000@ E\000\220\003E\000\000\275D\000\200\001E\000p\366E\000\000/E\000@\335D\000 dE\000\000eD\000\300\211D\000 )E\000 \312D\000\250UF\000\200\004E\000@\264D\000\300\246D\000\200\273E\000\330\362E\000@\003E\000 \310D\000\340IE\000\000\342D\000@\250D\000\2005D\000\200\326D\000@FD\000\200WD\000\300\363D\000\300\320D\000\200;E\000`0E\000\310\241E\000\000\372D\000\240\"E\000\300\031E\000@\307D\000\000\202D\000\000\265D\000\240\204D\000`\010E\000\240\267D\000\200\254E\000\000*D\000\320#E\000@\324D\000\340\254D\000\340\243D\000\000\327D\000\240\214D\000P\007E\000\200\343D\000\200\356C\000\300ZE\000\240\304D\000\240\005E\000\300\277D\000\300ZE\000\260\030E\000`\013E\000\000pD\000\360\223E\000\300\320D\000\300\360D\000\200\306D\000``E\000\020\003E\000\240\001F\000\200~D\000\300TE\000\000\347D\000@\277D\000\340\006E\000\300\273D\000\300zE\000\240\236D\000`\305D\000\000\\E\000`\021E\000\300\336D\000 \200E\000\000\356D\000`\266D\000\340\353D\000\340\323E\000H\307E\000\240\227D\000\220\026E\000\000\223D\000@\203D\000\300)E\000\200dD\000\200\220D\000\220fE\000@uD\000\300\007E\000\340\204D\000\000aD\000\000\234D\000\200/E\000 (E\000\000\207D\000\240\007E\000\240\255D\000@\330D\000\000\202D\000\200YE\000\020cE\000\300\312D\000\310\003F\000@\016E\000\200KD\000 \225D\000@\214D\000\340{E\000\240\357D\000\320\tE\000\000\026E\000\000\223D\000\300_D\000@5E\000\300\350D\000\000\324D\000\300\266D\000 \231E\000\220\004E\000\230\212E\000`\356D\000\200\265D\000@\260D\000`\344D\000\300\200D\000 \377D\000\2001D\000\300\274D\000\200\tE\000\200TE\000\300BE\000\000\333D\000\320\014E\000\000fD\000\300\220D\000 \206D\000\300\227D\000@\000E\000\000\266D\000@\316D\000\000\251D\000\000\233D\000@\375D\000@\234E\000\340\rE\000\020VE\000\340\244D\000@-D\000@\260D\000\000/E\000\000?D\000\200\267D\000\360WE\000\200~D\000\350\313E\000`\343D\000\340\rE\000\260\025E\000\000\201D\000\300bE\000\300\262D\000\270\224E\000\030\354E\000@\264D\000\240\314D\000\300\217E\000\270\202E\000\200\332D\000P\001E\000\200\220D\000\300\306D\000\020bE\000 \366D\000`\206E\000@\301D\000\200>D\000P6E\000\2001D\000\300\332D\000PFE\000\220OE\000\020KE\000\000QD\000\000\313D\000\200TE\000\200\216D\000\310\337E\000\300\250D\000\240\227D\000 \217D\000\200\312D\000\340\022E\000\000pD\000\000\377D\000`\233D\000\300\tE\000``E\000\200\215D\000\300\260D\000\200;E\000\340\267D\000\300\241E\000\3007E\000\340!E\000\000MD\000\200\211D\000\200\370D\000\3007D\000\300\001E\000@/D\000\340RE\000@\342D\000\300\215D\000@\277D\000\000;D\000`1E\000\200\301D\0000\004E\000X\233E\000\2007D\000\000RD\000\240\313D\000\000zD\0008\322E\000@\257D\000\000HE\000\340\232D\000@\202E\000\000gE\000P\036E\000\000iD\000`\032E\000\300\313D\000\370\276E\000`\256D\000\000\036D\000\240\360D\000P\005E\000\200\314D\000\200ID\000\000\227D\000\240EE\000\000HE\000\360\007E\000x\247E\000\220\317E\000`\344D\000\300cD\000@\241D\000\000<E\000P\'E\000\200\206D\000\000\310D\000\000\316D\000\000HE\000@\316D\000\200\315D\000@\237E\000\200\347D\000@\311D\000\200mE\000 7E\000\300XD\0000\030E\000p\007E\000\240\306E\000\000-D\000\000\242D\000 \377D\000@\301D\000\300\243D\000\300#D\000\000\275D\000\300\213D\000\200\223D\000\340\320D\000\340LE\000\340\355D\000\000rD\000 \321D\000\200{D\000\300^E\000\340\335D\000\200ID\000\240\276D\000\300\233D\000\200\212D\000@&E\000\000.D\000\000\032D\000\340\344D\000\000\250D\000\000\341D\000\0002E\000XKF\000\000\264D\000\240\341D\000\240\233D\000\360!E\000\340\020E\000\200\216D\000pEE\000\000HE\000\200\350D\000\0004E\000\200\tD\000\300\026E\0000\224E\000\000\363D\000\200\266D\000\340\242D\000\200YD\000\2006E\000\000FD\000\200\"E\000\000\333D\000\340\321D\000p0E\000\200\033D\000\200yD\000\340\345D\000\370\335E\000@\013F\000\000WD\000\000\276D\000\220\241E\000\200\315C\000\300\216D\000\000\215D\000@\221D\000\300\344D\000\000\360D\000\020\366E\000\000\250D\000\360$E\000\300\214D\000\340\316D\000@\202E\0000)E\000\200\203D\000\300\332D\000\340\325D\000\000CD\000\300ZD\000 \353D\000\200\tE\000@\246D\000`|E\000 _E\000\000\257D\000\000\004E\000\200\301D\000`\273D\000\320\204F\000\360#E\000\000wD\000\300\200D\000\000\341D\000\240\276D\000\000\241D\000pzE\000\200ZE\000@\010E\000\240\026E\000\200\216D\000\220\203E\000p\353E\000\300\243D\000\300xD\000\300pD\000\200\306D\000\200mD\000@\363D\000\300\332D\000\200\333D\000@\324D\000\000\245D\000\000\207D\000\300\265D\000\000pE\000\2404E\000`cE\000@\346D\000\200,D\000@yD\000\000WD\000\240\340D\000@\234D\000@vD\000\000*E\000\200\324D\000\200XD\000\000]D\000\200\304D\000\220LF\000\340\314D\000\030\261E\000\200/E\000\000XD\000\000\322D\000`\242D\000\000IE\000\300\234D\000\340\323D\000@\211D\000@ME\000\340\366D\000\000\241D\000\000\234D\000\000\252D\000@\303D\000\340\262D\000\200\311D\000\000\226D\000\340\326D\000\000\305D\000\200\324D\000\200\324D\000\200\374D\000@\003E\000\300\223D\000\000\272D\000 \365D\000\340\316D\000`VE\000\340\351D\000\300rD\000\200\261D\000@\310D\000@\260D\000\240\262D\000\0004E\000h\361E\000 \313E\000\000\226D\000@\272D\000\240\027E\000\240\301D\000\000WD\0000\324E\000\000\341D\000\000WE\000 \311D\000\360jE\000\300\005E\000\310\315E\000\200\312E\000\350\tF\000@\306D\000\200\201E\000\370\216E\000\340\307D\000@\253D\000\300\311D\000\340uE\000\300\253E\000\200\034E\000\000LD\000\200\324D\000\300\017E\000\340\237D\000@\273D\000\300\212D\000@\316D\000\370\201E\000\200\235D\000\000\200?\000\200-E\000@\234D\000\000+D\000\300ZD\000\200\273D\000\300\017E\000\2006E\000@\325D\000@\025E\000\240\213D\000\000\252D\000`BE\000\200\273D\000\240\020E\000\000\232D\000@\356D\000`\300D\000\000\212D\000\000mD\000@\203D\000\200\307D\000@\335D\000\000\330D\000\210\013F\000\240\251E\000P\330E\000\200\267D\000\200\215D\000\300\245D\000\300ZE\000 2E\000\300\rD\000\000\255D\000\200kD\000@\016E\000\240\365D\000\350\225F\0000YE\000\300\312D\000\200\273D\0000\306E\000\300\234D\000\240*E\000 \027E\000\000\217D\000\000ZD\000\200\372D\000\300\232D\000@\203D\000\200\223D\000\240\200D\000 \341D\000`\205D\000\340\254D\000\200\216D\000\020BE\00000E\000\000\263D\000\000#E\000\200\327D\000\300ZE\000\200\247D\000@\335D\000\240\310D\000@\024E\000\230\206E\000`\261D\000\340\301D\000\200YE\000@\326D\000\000\270D\000\240\326D\000\000\372C\000\000HE\000`\'E\000\000\214D\000\300\210D\000`4E\000\000\014E\000\340\230D\000 \205E\000`\247D\000\300\025E\000`\202D\000@VD\000\200\216D\000\000vD\000\300\341D\000\320\027E\000\200\211D\000\000\205D\000\340\215E\000\000\243D\000`\230D\000\000\276D\000\000AD\000\260\033E\000\200\212D\000\000KE\000\000\233D\000`\337D\000PfE\000\220\005F\000\300\250D\000\200vD\000\340\310D\000\320\030E\000\000zD\000\300}D\000`QE\000\320;E\000\000\252D\000\200\220D\000\2404E\000@{E\000x\301E\000\000\327D\000 \222D\000 2E\000 KE\000\200\211D\000\000[D\000\000\374C\000@SD\000\200\002E\000\020ME\000\000\327D\000\000\264D\000\200\017E\000\200\355D\000@@D\000\200\261D\000\240\276D\000\300\231D\000`\301D\000\300(E\000\300\217D\000\240\014E\0000ME\000\200\206D\000\300+E\000\000\222D\000\000UD\000@SD\000\300\266D\000\340\302D\000\300iE\000\300\324D\000\200\320D\000\260mE\000PfE\000\000\237E\000`\225D\000\300jD\000\300\215D\000 \236E\000\000RD\000P\234E\000@WE\000\200\222D\000\300\\D\000\200;E\000\240\214D\000\000\301D\000\000\262D\000\200\360D\000\200\305D\000\000sD\000\200\204D\000\240%E\000\200\"E\000\000\202D\000\000\224D\000\300\336D\000\340\023E\000\200\237D\000\000aD\000\200zD\0000\231E\000\300\327D\000\240\366D\000\200\211D\000\000<E\000\300\311D\000\200\273D\000@\000E\000\240\"E\000@\014E\000\200\374D\000\300\177D\000`\001E\0000?E\000\020>E\000\000/D\000\000TE\000\300\236D\00001E\000\000/D\000\000\270D\000@RE\000\000\301D\000 KE\000\300\315D\000\340\340D\000\240\375D\000@VD\000\200\273D\000\360\024E\000P\005E\000\200\204D\000\240\264D\0000\021E\000\260\023E\000\300\341E\000\340\203D\000@\203E\000\340,E\000\300\257D\000\000/D\000\000pD\000 \371D\000 \351D\000\320lE\000\270\226E\000\200\343D\000\300\200D\000@\034E\000@UE\000\340\221D\000\240mE\000@^E\000`DE\000 \341D\000\000\177D\000\300\360D\000@\272D\000\200\355D\000\000|D\000\000@D\000@\216D\000\000\322D\000\200\204D\000\340{E\000 \376D\000\000\240D\000 \010E\000\320\tE\000\200TD\000\200\032E\000\000\026D\000\340\276D\000\000\334D\000\000\264D\000\000zD\000\200\273D\000@\234E\000`\025E\000@\'E\000\000\221D\000\200\016E\000 \235E\000\340\255D\000P\010E\000@\006D\000\000\334D\000@\333D\000 \rE\000@5E\000\340\304D\000@\324D\000@\241D\000 \347D\000\200\237D\000\240\014E\000\000\310E\000\000\214D\000\000\264D\000 \223D\000`\320D\000\300\226D\000\320\027E\000\200\346D\000\240\007E\000\000\227D\000\340\022E\000\000\204D\000\200\362D\000@\237D\000p\027E\000@,E\000\300\341D\000\000\310D\000\330\232E\000\000\240D\000@5E\000\000\245D\000\360SE\000\200;D\000\200\362D\000\020\000E\000\000\\D\000\240<E\000\000\240D\000\340\253D\000P\'E\000\360\\E\000\000&D\000@\227D\000peE\000\000)D\000\300\243D\000`\364D\000\360\033E\000@\022E\000\000\000@\000 GE\0004:F\000\200\361D\000\240%E\000`\351D\000\000\002E\000`3E\000\200\030E\000@\204D\000@\327E\000\200\362D\000\360*E\000@\272D\000\000\300D\000\240\264D\000@\275D\000\200\312D\000\000\306D\000\000\264D\000@\340D\000\000zD\000 \276D\000\200\331D\000 \246D\000\200\274D\000 2E\000X\227E\000\200uD\000\000\257D\000\000\226D\000\000/E\000\300\336D\000\200\037D\000\200\303D\000\200\375D\000@&E\000\200;F\000\200\004E\000\300BE\000 \340D\000`\205D\000\300dE\000h\251E\000 cE\000\000\377D\000 \227D\000 \371D\000P\250E\000\200cE\000\300dE\000\300)E\000\020&E\000\340\266D\000\000HD\000\360]E\000\000\\D\000\200\377C\000\300\325D\000\200\324D\000\000\250D\000\000\001E\000\240\007E\000\000WD\000\300PE\000@\203D\000\200\247D\000`YE\000\240\360D\000\200\312D\000\000\027E\000PRE\000@\227D\000\320ZE\000\000\221D\000 7E\000PAE\000\000hD\000@5D\000\320\204E\000\240\302D\000\200\tD\00000E\000\340\036E\000\2003D\000@\241D\000\300\371D\000\000ND\000\300\325D\000\200mD\000\020\004E\000\200\355D\000\340 E\000@\364D\000\000zD\000\000\257D\000P\'E\000`\020E\000`\nE\000\000tD\000\000\226D\000`#E\000\000\327D\000\300\226D\000\000FE\000@-D\000\240\241D\000@\302D\000\340aE\000`yE\000\0004D\000`\335D\000\300\032E\000\000*D\000\200\367C\000\000\227D\000\020jE\000 PE\000\354\243F\000\020[E\000\200\347D\000\000zF\000\300\250D\000@%E\000\300\017E\000`\037E\000\300}D\000`\255D\000\340\276D\000@\tE\000\320,E\000\000\256D\000\000\303D\000\240\345D\000\200TD\000@qD\000p\033E\000\000\217D\000@\001E\000\360UE\000@\233D\000\200\211D\000\240\355D\000\200\212D\000\300\256D\000\350\240E\000\340\207D\000 \217E\000\200\005E\000\000\253D\000@\034E\000\000uD\000\200YD\000 \200D\000\320*E\000\000\'E\000 \025E\000\000\316D\000P\005E\000\240\223D\000`\016E\000\000zD\000\300\264D\000\340\022E\000@\270D\000\300xD\0000\021E\000\240\205D\000\000\372D\000\000\003D\000\000\321D\000\240\346E\000\200\367C\000@\027D\000\000\026E\000\300EE\000\000\322D\000@\241D\000\000YD\000\020*E\000 4E\000\300\231D\000\200jD\000\000pE\000\300\344D\000 \231D\000\000(E\000\000zD\000\000\250D\000@\361D\000@]D\000@\234D\000\260\013E\000\000\226D\000\000HD\000@\203D\000\300UE\000`\370D\000\360\355E\000\340\260D\000`\006E\000\230\241E\000\200\035E\000\000\362D\000`\236D\000\300\261D\000\200mE\000@\326D\000\020>E\000@^D\000\200sD\000\000\320D\000\340]E\000\340\256D\000\200pD\000 \200D\000\260DE\000 \005E\000\300\360D\000\000zD\000\300\277D\000@aD\000\000zD\0004\027F\000\200\324D\000\340!E\000\300\221D\000\000\364D\000\000zE\000\000cD\000\340\252E\000\200\274D\000\200\315D\000\360\006E\000\010\305E\000\340\302D\000\300\356D\000\340\373D\000\200\263D\000\200\361C\000\000\204D\000\350\313E\000\000\341D\000\200OE\000\240 E\000\300\000D\000\0004D\000\220tE\000\300\236D\000@\016E\000p\021E\000\000\033E\000\000\003E\000@\022E\000\340\'E\000@\253D\000@2E\000\230\210E\000\000\241D\000\200\333D\000\240\014E\000\300tD\000\200\tE\000 \260D\000\200\237D\000\020KE\000 \345D\000`\363D\000\200\305D\000\340\rE\000\300\370D\000\240\245D\000\000\332D\000@\003E\000\200\034E\000\200;E\000\300\243D\000\200\331D\000\300\246D\000\240zE\000PKE\000@\036E\000@\200D\000\000\341E\000@\330D\000\000\264D\000\360>E\000\240\254D\000\200\312D\000\200\361C\000 \200D\000\230\212E\000@\336D\000\260\003E\000\360\004E\000\240\226D\000`\037E\000`\361D\000\200\rE\000 \233D\000\000\263D\000\240\016E\000\200\266D\000\200\220D\000\300\200D\000\000eD\000\000\001E\000\360\331E\000\000\330D\000 \245D\000\260.E\000\000jD\000\000\'E\000@\203D\000\000\007D\000\300xE\000\300\260D\000\300sE\000\300\017E\000@dD\000`\205D\000 \231D\000\340\236E\000\300\\E\000\000qE\000\214\030F\000\000aE\000\220IE\000\340\353D\000\300pD\000\000+D\000\240\266D\000\340\022E\000`\337D\000\000\214D\000 \257D\000\000\364D\000\200AE\000\000\365D\000P\016E\000\000\310D\00005E\000\200^E\000\000fD\000\240\030E\000\200\276E\000@\034F\000\200mD\000\000\302E\000\200\367D\000\000\201D\000`\020E\000\020\000E\000X\001F\000\000\205D\000`\262D\000@\002E\000\320\200E\000\000zD\000\300\363D\000`\213D\000\020\027E\000@\177D\000\240\333D\000\210\200E\000\354\013F\000`\260D\000@&D\0000QE\000\000\354D\000\300nD\000\340\017E\000d+F\000@\"D\000\200\025E\000\200|E\000`\345D\000\000\354D\000\200\004E\000\200\200D\000\000\333D\000\220\241E\000\000\316D\000\200\013E\000\200\234D\000\240\033E\000\260\001E\000\340{E\000\000\245D\000\200\273D\000\000zD\000\250\253E\0000\177E\000\200\252D\000\200\311C\000\000\177D\000@\371D\000p7E\000@~E\000\240\346D\000\000\204E\000\000\247D\000@\253D\000\200IE\000\000\302D\000P\004E\000`\326D\000@\'E\000\200`D\000\340\022E\000\300\362D\000\360 E\000`\261D\000pIE\000@\003E\000\000vD\000\240\244D\000\000HE\000`,E\000\2409F\000\200\223D\000\200\220D\000\300\376D\000 \200E\000\200\350D\000 \224D\000\300nD\000\000\014E\000\200\211D\000\340\rE\000\240\266D\000\000\353D\000@\236D\000\000-E\000\200\311D\000@\314D\000\240\222D\000\260\003E\000\240\002E\000\020yE\000\300\274D\000\200\351D\000\200\203D\000\304\006F\000\300\217D\000p;E\000\200[D\000\000\234D\000\000\370D\000`\201E\000\200]D\000\360\245E\000`\321D\000\000\245D\000\200\263D\0000\223E\000\000\264D\000\000\240D\000\300\235D\000\300~D\000\200oD\000`\031E\000\260\"E\000\000/D\000`\264D\000`\334D\000\000\266D\000\000\322C\000`\"E\000 \272D\000\200cE\000\000kE\000`\226D\0000\033E\000\000\220D\000\000\263D\000\200\242D\000\260\302E\000\300\242D\000\200\336D\000\300\205D\000\200\253D\000\300\364D\000\340\300E\000\300\217D\000\340\021E\000@\326D\000\020VE\000\300AE\000 #E\000@kE\000@2D\000@\305D\000\000\344D\000\340\276D\000\320tE\000\340\312D\000\000\007E\000\300\027E\000\020\275E\000\200\324D\000`\036E\000 \267D\000\240\224E\000\200\212D\000\000~E\000\000PD\000\240\013E\000\000pD\000\360FE\000\000\030E\000`\rE\000 \330D\000P\326E\000\220\000E\000`\301D\000\200OD\0000\277E\000\000\241D\000 \227E\000\200\223D\000\000\322D\000\0006E\000\340[E\000`\227D\000`#E\000\300AE\000 2E\000\320\'E\000\300#D\000@\361D\000 \373D\000;\215G\000\340\272D\000`\005E\000\000\252D\000@\362D\000\200\254D\000\000\341D\000\000\375D\000\200\'D\000\200\317D\000@\227D\000\300\337D\000\240\206D\000\340\321D\000\300\345D\000\240WE\000\200\023E\000\000\264D\000\200\376D\000 \307D\000\240\315D\000\240\304D\000\200\273D\000\000\014E\000\000pD\0000aE\000\240%E\000\000\250D\000\300\263E\000@\tD\000h\307E\000\360RE\000\200\257D\000\240\342D\000\030\272E\000\220XE\000 \223E\000\300\330D\000\000\005D\000\270\201E\000@\241D\000\340\"E\000\300\263D\000@\036E\000\000\303D\000\270\256E\000\240\'E\000\200\305E\000P\010E\000\200\355D\000 \003E\000 \310D\000\000CD\000\000\305D\000@\266D\000\200\324D\000\340\022E\000\200wD\000\340\334D\000\200\204D\000@\311D\000 \351D\000@\311D\000\320fE\000\000\262D\000\300dE\000@\034E\000`\014E\000@RD\000\340\263D\000\300(E\000\200\273D\000@\203D\000\340\366D\000\300#E\000\000\031D\000\240\207D\000\320-E\000p?E\000@,E\000\340\220D\000`\330D\000\340vE\000@\034F\000\240\250D\000`\233D\000\300\320D\000@\304D\000\300\327D\000\300\tE\000\300\031E\000 \200E\000\340\214D\000\200\305D\000\300\356D\000\0009D\000\020\330E\000 \000E\000\000KD\000@\265D\000\030\353E\000\300\257D\000\000\226D\000\000\276D\0000\230E\000`\327D\000@fD\000\000\226D\000\000\010E\000\000\026E\000 \210D\000\300=D\000\360\007E\000@\203D\000\240\224D\000\020\315E\000\200\355D\000\300?D\000\240kE\000@\203D\000\200\350D\000\300\274D\000\200\222D\000\200\214D\000 \322D\000\200\311D\000\000\250D\000p\007E\000\300\332E\000\200\334D\000 \317D\000\200\211D\000p\203E\000\340\232D\000\000[D\000\300\231D\000`\220D\000`\345D\000`\277D\000\000dE\000\200\361C\000`\nE\000@\177D\000\000\237D\000`\272D\000\240\203D\000\200\242E\000`\216D\000@\265D\000\000^D\000\200\361C\000 \206D\000\200\327C\000\000iD\000`\tE\000\200\nE\000\200\342C\000\300\316D\000\200;E\000\000eD\000\240\214F\000\200\355D\000\240JE\000`\341E\000\000\303E\000\300\017E\000@\034E\000\300GE\000\220*E\000\300\375D\000\260\007E\000`\265D\000\340HE\000T\304F\000\300\034E\000\370\201E\000\200\224D\000@\203E\000\300AE\000@\316D\000`\337D\000\200\354D\000\030\227F\000\200\313D\000\000\207D\000@\265D\000`\213D\000\200\355D\000\200\230D\000\230\340E\000\340\213E\000\000CE\000\330\006F\000@\222E\000\200;F\000P\006E\000\200\255D\000\200\232D\000@\336D\000\200\327D\000\300\215D\000`\347D\000\000\214D\000\200\315D\000\340\362D\000@\343D\000\340WE\000\000-E\000\200\226D\000\020\275E\000@cD\000\000\203D\000 \233D\000\300\310D\000\300\272D\000@\345D\000\240HE\000 \212D\000\000\350D\000\200\023E\000\000\372D\000\300HE\000\300\222D\000\000\006D\000@\200D\000\200bD\000\200\222D\000@\311D\000@wD\000\350\200E\000\000\237D\000\300\250D\000\000/F\000\240\327D\000\300sD\000\000BE\000\300\017E\000\000aD\000\210\264E\000\000\177D\000\000\245D\0000QE\000@=D\000\000\207D\000\300\333D\000@\303D\000\000\372D\000\240\245D\000\000\tE\000\340\247D\000`\231D\000\340\214E\000\000\327D\000p\177E\000\200\273D\000\200mD\000\340\301D\000\200\217D\000\200,E\000@KD\000\340\213E\000\200WE\000\020\023E\000\300\255E\000\200\225D\000\240\tE\000\300\236D\000\000\372D\000p\rE\000\000\323D\000 >E\000\236\230F\000\020)E\000 \364D\000\340\304E\000\020vE\000\200XD\000\200\265D\000\200\324D\000\3403E\000\200\243D\000\300\217D\000\300\363D\000 \334D\000`_E\000@DE\000\000\257D\000\240\361D\000\000\313D\000\340\316D\000\000\177D\000\300\213D\000\300\226D\000\000\\E\000\200\202D\000\300\353D\000\200\217D\000p{E\000\000\253D\000\000\312D\000\300\203D\0000\016E\000@\251D\000\000\202D\000\200pD\000\340\271D\000\014\014F\000\200\212D\000\230\230E\000@\022E\000 \223E\000\260\027E\000\200\tE\000@\260D\000\300\375D\000\000-D\000\000QE\000`\320D\000\200\367D\000P\271E\000@8E\000\300xD\000\360\021E\000\340\214D\000\200\347D\000\200\235D\000\2001E\000\340\022E\000\300\317D\000\000*E\000\200|D\000@\347D\000\000\232D\000`\205D\000\300\272D\0004=F\000@*E\000\000\365C\000@\234D\000\200\\D\000\300\314D\000@ND\000\000\341C\000 \237D\000\240\322E\000\240\315D\000\000\364D\000 \310D\000@NE\000x@F\000\320:E\000\3405E\000@\203D\000\260\263E\000\000HD\000\340\376D\000\320\230E\000\320;E\000\240.E\000 \270D\000\340\313D\000\240\272D\000\240\221D\000\210\246E\000\240`E\000(\252E\000DcF\000\300LD\000@\323D\000\0203E\000\300\217D\000\300\334D\000\000oD\000\200\273D\000\200\334D\000p\033E\000\200;E\000\200TE\000@\360D\000\240\252D\000\240\231D\000(\270E\000\260\021E\000\000\207D\000\000\216D\000\300\262D\000@\244D\000\000HD\000\000\214D\000\000\250D\000x\237E\000\200\211E\000@!D\000\340\003E\000\370hF\000\000\214D\000\200\234C\000\000XD\000@\203D\000\200\tD\000\0205E\000`\277D\000\000\356C\000H\226E\000\200\343D\000\200\214D\000@\265D\000@\331D\000\260.E\000 \360D\0000\246F\000\000/E\000\240\312D\000\200rE\000\200\247D\000@~D\000\000\230D\000\340\272E\000\300AE\000\240\372D\000\000kD\000\260\010E\000\000\335D\000\300\257D\000\200\242D\000\000\267D\000\240\007E\000\200\214D\000\200\216D\000\3402E\0000;E\000\220oE\000`\206E\000\000\257D\000\000\000@\000\000/E\000\340\214D\000@\253D\000\300\345D\000\000\300D\000\000HE\000X\234E\000\300\030D\000 \312D\000\300\235D\000\200\243D\000\2003D\000\340\351D\000 \200D\000\000\230D\000\200\376D\000\240\264D\000\000\033E\000\000\276D\000\020\211E\000\200\tD\000H\206E\000\200TD\000\240\272D\000\320\255E\000\000eD\000\360\233E\000\200\211E\000 \347D\000\0002D\000@\203D\000P\\E\000\220\034E\0000\203E\000`\013E\000 \221E\000\000\310D\000\360\000E\000\200~D\000\240\347D\000\200\377D\000\200\"E\000\200\242D\000\320OE\000`\234D\000\340\000E\000\000\341D\000\000\244D\000 \000E\000\300\200D\000\300\231D\000\000\242D\000(\225E\000\200\312D\000\000\350D\000 \017E\0000gE\000 \307D\000\200\211D\000@\304D\000\300\351D\000\340\251D\000\000\304D\000\300\237D\000`\236D\000\000\230D\000\340\222E"
      }
    }
  }
}
node {
  name: "SparseTensor/indices"
  op: "Const"
  attr {
    key: "_output_shapes"
    value {
      list {
        shape {
          dim {
            size: 1855
          }
          dim {
            size: 2
          }
        }
      }
    }
  }
  attr {
    key: "dtype"
    value {
      type: DT_INT64
    }
  }
  attr {
    key: "value"
    value {
      tensor {
        dtype: DT_INT64
        tensor_shape {
          dim {
            size: 1855
          }
          dim {
            size: 2
          }
        }
        tensor_content: "\000\000\000\000\000\000\000\000\000\000\000\000\000\000\000\000\001\000\000\000\000\000\000\000\000\000\000\000\000\000\000\000\002\000\000\000\000\000\000\000\000\000\000\000\000\000\000\000\003\000\000\000\000\000\000\000\000\000\000\000\000\000\000\000\004\000\000\000\000\000\000\000\000\000\000\000\000\000\000\000\005\000\000\000\000\000\000\000\000\000\000\000\000\000\000\000\006\000\000\000\000\000\000\000\000\000\000\000\000\000\000\000\007\000\000\000\000\000\000\000\000\000\000\000\000\000\000\000\010\000\000\000\000\000\000\000\000\000\000\000\000\000\000\000\t\000\000\000\000\000\000\000\000\000\000\000\000\000\000\000\n\000\000\000\000\000\000\000\000\000\000\000\000\000\000\000\013\000\000\000\000\000\000\000\000\000\000\000\000\000\000\000\014\000\000\000\000\000\000\000\000\000\000\000\000\000\000\000\r\000\000\000\000\000\000\000\000\000\000\000\000\000\000\000\016\000\000\000\000\000\000\000\000\000\000\000\000\000\000\000\017\000\000\000\000\000\000\000\000\000\000\000\000\000\000\000\020\000\000\000\000\000\000\000\000\000\000\000\000\000\000\000\021\000\000\000\000\000\000\000\000\000\000\000\000\000\000\000\022\000\000\000\000\000\000\000\000\000\000\000\000\000\000\000\023\000\000\000\000\000\000\000\000\000\000\000\000\000\000\000\024\000\000\000\000\000\000\000\000\000\000\000\000\000\000\000\025\000\000\000\000\000\000\000\000\000\000\000\000\000\000\000\026\000\000\000\000\000\000\000\000\000\000\000\000\000\000\000\027\000\000\000\000\000\000\000\000\000\000\000\000\000\000\000\030\000\000\000\000\000\000\000\000\000\000\000\000\000\000\000\031\000\000\000\000\000\000\000\000\000\000\000\000\000\000\000\032\000\000\000\000\000\000\000\000\000\000\000\000\000\000\000\033\000\000\000\000\000\000\000\000\000\000\000\000\000\000\000\034\000\000\000\000\000\000\000\000\000\000\000\000\000\000\000\035\000\000\000\000\000\000\000\000\000\000\000\000\000\000\000\036\000\000\000\000\000\000\000\000\000\000\000\000\000\000\000\037\000\000\000\000\000\000\000\000\000\000\000\000\000\000\000 \000\000\000\000\000\000\000\000\000\000\000\000\000\000\000!\000\000\000\000\000\000\000\000\000\000\000\000\000\000\000\"\000\000\000\000\000\000\000\000\000\000\000\000\000\000\000#\000\000\000\000\000\000\000\000\000\000\000\000\000\000\000$\000\000\000\000\000\000\000\000\000\000\000\000\000\000\000%\000\000\000\000\000\000\000\000\000\000\000\000\000\000\000&\000\000\000\000\000\000\000\000\000\000\000\000\000\000\000\'\000\000\000\000\000\000\000\000\000\000\000\000\000\000\000(\000\000\000\000\000\000\000\000\000\000\000\000\000\000\000)\000\000\000\000\000\000\000\000\000\000\000\000\000\000\000*\000\000\000\000\000\000\000\000\000\000\000\000\000\000\000+\000\000\000\000\000\000\000\000\000\000\000\000\000\000\000,\000\000\000\000\000\000\000\000\000\000\000\000\000\000\000-\000\000\000\000\000\000\000\000\000\000\000\000\000\000\000.\000\000\000\000\000\000\000\000\000\000\000\000\000\000\000/\000\000\000\000\000\000\000\000\000\000\000\000\000\000\0000\000\000\000\000\000\000\000\000\000\000\000\000\000\000\0001\000\000\000\000\000\000\000\000\000\000\000\000\000\000\0002\000\000\000\000\000\000\000\000\000\000\000\000\000\000\0003\000\000\000\000\000\000\000\000\000\000\000\000\000\000\0004\000\000\000\000\000\000\000\000\000\000\000\000\000\000\0005\000\000\000\000\000\000\000\000\000\000\000\000\000\000\0006\000\000\000\000\000\000\000\000\000\000\000\000\000\000\0007\000\000\000\000\000\000\000\000\000\000\000\000\000\000\0008\000\000\000\000\000\000\000\000\000\000\000\000\000\000\0009\000\000\000\000\000\000\000\000\000\000\000\000\000\000\000:\000\000\000\000\000\000\000\000\000\000\000\000\000\000\000;\000\000\000\000\000\000\000\000\000\000\000\000\000\000\000<\000\000\000\000\000\000\000\000\000\000\000\000\000\000\000=\000\000\000\000\000\000\000\000\000\000\000\000\000\000\000>\000\000\000\000\000\000\000\000\000\000\000\000\000\000\000?\000\000\000\000\000\000\000\000\000\000\000\000\000\000\000@\000\000\000\000\000\000\000\000\000\000\000\000\000\000\000A\000\000\000\000\000\000\000\000\000\000\000\000\000\000\000B\000\000\000\000\000\000\000\000\000\000\000\000\000\000\000C\000\000\000\000\000\000\000\000\000\000\000\000\000\000\000D\000\000\000\000\000\000\000\000\000\000\000\000\000\000\000E\000\000\000\000\000\000\000\000\000\000\000\000\000\000\000F\000\000\000\000\000\000\000\000\000\000\000\000\000\000\000G\000\000\000\000\000\000\000\000\000\000\000\000\000\000\000H\000\000\000\000\000\000\000\000\000\000\000\000\000\000\000I\000\000\000\000\000\000\000\000\000\000\000\000\000\000\000J\000\000\000\000\000\000\000\000\000\000\000\000\000\000\000K\000\000\000\000\000\000\000\000\000\000\000\000\000\000\000L\000\000\000\000\000\000\000\000\000\000\000\000\000\000\000M\000\000\000\000\000\000\000\000\000\000\000\000\000\000\000N\000\000\000\000\000\000\000\000\000\000\000\000\000\000\000O\000\000\000\000\000\000\000\000\000\000\000\000\000\000\000P\000\000\000\000\000\000\000\000\000\000\000\000\000\000\000Q\000\000\000\000\000\000\000\000\000\000\000\000\000\000\000R\000\000\000\000\000\000\000\000\000\000\000\000\000\000\000S\000\000\000\000\000\000\000\000\000\000\000\000\000\000\000T\000\000\000\000\000\000\000\000\000\000\000\000\000\000\000U\000\000\000\000\000\000\000\000\000\000\000\000\000\000\000V\000\000\000\000\000\000\000\000\000\000\000\000\000\000\000W\000\000\000\000\000\000\000\000\000\000\000\000\000\000\000X\000\000\000\000\000\000\000\000\000\000\000\000\000\000\000Y\000\000\000\000\000\000\000\000\000\000\000\000\000\000\000Z\000\000\000\000\000\000\000\000\000\000\000\000\000\000\000[\000\000\000\000\000\000\000\000\000\000\000\000\000\000\000\\\000\000\000\000\000\000\000\000\000\000\000\000\000\000\000]\000\000\000\000\000\000\000\000\000\000\000\000\000\000\000^\000\000\000\000\000\000\000\000\000\000\000\000\000\000\000_\000\000\000\000\000\000\000\000\000\000\000\000\000\000\000`\000\000\000\000\000\000\000\000\000\000\000\000\000\000\000a\000\000\000\000\000\000\000\000\000\000\000\000\000\000\000b\000\000\000\000\000\000\000\000\000\000\000\000\000\000\000c\000\000\000\000\000\000\000\000\000\000\000\000\000\000\000d\000\000\000\000\000\000\000\000\000\000\000\000\000\000\000e\000\000\000\000\000\000\000\000\000\000\000\000\000\000\000f\000\000\000\000\000\000\000\000\000\000\000\000\000\000\000g\000\000\000\000\000\000\000\000\000\000\000\000\000\000\000h\000\000\000\000\000\000\000\000\000\000\000\000\000\000\000i\000\000\000\000\000\000\000\000\000\000\000\000\000\000\000j\000\000\000\000\000\000\000\000\000\000\000\000\000\000\000k\000\000\000\000\000\000\000\000\000\000\000\000\000\000\000l\000\000\000\000\000\000\000\000\000\000\000\000\000\000\000m\000\000\000\000\000\000\000\000\000\000\000\000\000\000\000n\000\000\000\000\000\000\000\000\000\000\000\000\000\000\000o\000\000\000\000\000\000\000\000\000\000\000\000\000\000\000p\000\000\000\000\000\000\000\000\000\000\000\000\000\000\000q\000\000\000\000\000\000\000\000\000\000\000\000\000\000\000r\000\000\000\000\000\000\000\000\000\000\000\000\000\000\000s\000\000\000\000\000\000\000\000\000\000\000\000\000\000\000t\000\000\000\000\000\000\000\000\000\000\000\000\000\000\000u\000\000\000\000\000\000\000\000\000\000\000\000\000\000\000v\000\000\000\000\000\000\000\000\000\000\000\000\000\000\000w\000\000\000\000\000\000\000\000\000\000\000\000\000\000\000x\000\000\000\000\000\000\000\000\000\000\000\000\000\000\000y\000\000\000\000\000\000\000\000\000\000\000\000\000\000\000z\000\000\000\000\000\000\000\000\000\000\000\000\000\000\000{\000\000\000\000\000\000\000\000\000\000\000\000\000\000\000|\000\000\000\000\000\000\000\000\000\000\000\000\000\000\000}\000\000\000\000\000\000\000\000\000\000\000\000\000\000\000~\000\000\000\000\000\000\000\000\000\000\000\000\000\000\000\177\000\000\000\000\000\000\000\000\000\000\000\000\000\000\000\200\000\000\000\000\000\000\000\000\000\000\000\000\000\000\000\201\000\000\000\000\000\000\000\000\000\000\000\000\000\000\000\202\000\000\000\000\000\000\000\000\000\000\000\000\000\000\000\203\000\000\000\000\000\000\000\000\000\000\000\000\000\000\000\204\000\000\000\000\000\000\000\000\000\000\000\000\000\000\000\205\000\000\000\000\000\000\000\000\000\000\000\000\000\000\000\206\000\000\000\000\000\000\000\000\000\000\000\000\000\000\000\207\000\000\000\000\000\000\000\000\000\000\000\000\000\000\000\210\000\000\000\000\000\000\000\000\000\000\000\000\000\000\000\211\000\000\000\000\000\000\000\000\000\000\000\000\000\000\000\212\000\000\000\000\000\000\000\000\000\000\000\000\000\000\000\213\000\000\000\000\000\000\000\000\000\000\000\000\000\000\000\214\000\000\000\000\000\000\000\000\000\000\000\000\000\000\000\215\000\000\000\000\000\000\000\000\000\000\000\000\000\000\000\216\000\000\000\000\000\000\000\000\000\000\000\000\000\000\000\217\000\000\000\000\000\000\000\000\000\000\000\000\000\000\000\220\000\000\000\000\000\000\000\000\000\000\000\000\000\000\000\221\000\000\000\000\000\000\000\000\000\000\000\000\000\000\000\222\000\000\000\000\000\000\000\000\000\000\000\000\000\000\000\223\000\000\000\000\000\000\000\000\000\000\000\000\000\000\000\224\000\000\000\000\000\000\000\000\000\000\000\000\000\000\000\225\000\000\000\000\000\000\000\000\000\000\000\000\000\000\000\226\000\000\000\000\000\000\000\000\000\000\000\000\000\000\000\227\000\000\000\000\000\000\000\000\000\000\000\000\000\000\000\230\000\000\000\000\000\000\000\000\000\000\000\000\000\000\000\231\000\000\000\000\000\000\000\000\000\000\000\000\000\000\000\232\000\000\000\000\000\000\000\000\000\000\000\000\000\000\000\233\000\000\000\000\000\000\000\000\000\000\000\000\000\000\000\234\000\000\000\000\000\000\000\000\000\000\000\000\000\000\000\235\000\000\000\000\000\000\000\000\000\000\000\000\000\000\000\236\000\000\000\000\000\000\000\000\000\000\000\000\000\000\000\237\000\000\000\000\000\000\000\000\000\000\000\000\000\000\000\240\000\000\000\000\000\000\000\000\000\000\000\000\000\000\000\241\000\000\000\000\000\000\000\000\000\000\000\000\000\000\000\242\000\000\000\000\000\000\000\000\000\000\000\000\000\000\000\243\000\000\000\000\000\000\000\000\000\000\000\000\000\000\000\244\000\000\000\000\000\000\000\000\000\000\000\000\000\000\000\245\000\000\000\000\000\000\000\000\000\000\000\000\000\000\000\246\000\000\000\000\000\000\000\000\000\000\000\000\000\000\000\247\000\000\000\000\000\000\000\000\000\000\000\000\000\000\000\250\000\000\000\000\000\000\000\000\000\000\000\000\000\000\000\251\000\000\000\000\000\000\000\000\000\000\000\000\000\000\000\252\000\000\000\000\000\000\000\000\000\000\000\000\000\000\000\253\000\000\000\000\000\000\000\000\000\000\000\000\000\000\000\254\000\000\000\000\000\000\000\000\000\000\000\000\000\000\000\255\000\000\000\000\000\000\000\000\000\000\000\000\000\000\000\256\000\000\000\000\000\000\000\000\000\000\000\000\000\000\000\257\000\000\000\000\000\000\000\000\000\000\000\000\000\000\000\260\000\000\000\000\000\000\000\000\000\000\000\000\000\000\000\261\000\000\000\000\000\000\000\000\000\000\000\000\000\000\000\262\000\000\000\000\000\000\000\000\000\000\000\000\000\000\000\263\000\000\000\000\000\000\000\000\000\000\000\000\000\000\000\264\000\000\000\000\000\000\000\000\000\000\000\000\000\000\000\265\000\000\000\000\000\000\000\000\000\000\000\000\000\000\000\266\000\000\000\000\000\000\000\000\000\000\000\000\000\000\000\267\000\000\000\000\000\000\000\000\000\000\000\000\000\000\000\270\000\000\000\000\000\000\000\000\000\000\000\000\000\000\000\271\000\000\000\000\000\000\000\000\000\000\000\000\000\000\000\272\000\000\000\000\000\000\000\000\000\000\000\000\000\000\000\273\000\000\000\000\000\000\000\000\000\000\000\000\000\000\000\274\000\000\000\000\000\000\000\000\000\000\000\000\000\000\000\275\000\000\000\000\000\000\000\000\000\000\000\000\000\000\000\276\000\000\000\000\000\000\000\000\000\000\000\000\000\000\000\277\000\000\000\000\000\000\000\000\000\000\000\000\000\000\000\300\000\000\000\000\000\000\000\000\000\000\000\000\000\000\000\301\000\000\000\000\000\000\000\000\000\000\000\000\000\000\000\302\000\000\000\000\000\000\000\000\000\000\000\000\000\000\000\303\000\000\000\000\000\000\000\000\000\000\000\000\000\000\000\304\000\000\000\000\000\000\000\000\000\000\000\000\000\000\000\305\000\000\000\000\000\000\000\000\000\000\000\000\000\000\000\306\000\000\000\000\000\000\000\000\000\000\000\000\000\000\000\307\000\000\000\000\000\000\000\000\000\000\000\000\000\000\000\310\000\000\000\000\000\000\000\000\000\000\000\000\000\000\000\311\000\000\000\000\000\000\000\000\000\000\000\000\000\000\000\312\000\000\000\000\000\000\000\000\000\000\000\000\000\000\000\313\000\000\000\000\000\000\000\000\000\000\000\000\000\000\000\314\000\000\000\000\000\000\000\000\000\000\000\000\000\000\000\315\000\000\000\000\000\000\000\000\000\000\000\000\000\000\000\316\000\000\000\000\000\000\000\000\000\000\000\000\000\000\000\317\000\000\000\000\000\000\000\000\000\000\000\000\000\000\000\320\000\000\000\000\000\000\000\000\000\000\000\000\000\000\000\321\000\000\000\000\000\000\000\000\000\000\000\000\000\000\000\322\000\000\000\000\000\000\000\000\000\000\000\000\000\000\000\323\000\000\000\000\000\000\000\000\000\000\000\000\000\000\000\324\000\000\000\000\000\000\000\000\000\000\000\000\000\000\000\325\000\000\000\000\000\000\000\000\000\000\000\000\000\000\000\326\000\000\000\000\000\000\000\000\000\000\000\000\000\000\000\327\000\000\000\000\000\000\000\000\000\000\000\000\000\000\000\330\000\000\000\000\000\000\000\000\000\000\000\000\000\000\000\331\000\000\000\000\000\000\000\000\000\000\000\000\000\000\000\332\000\000\000\000\000\000\000\000\000\000\000\000\000\000\000\333\000\000\000\000\000\000\000\000\000\000\000\000\000\000\000\334\000\000\000\000\000\000\000\000\000\000\000\000\000\000\000\335\000\000\000\000\000\000\000\000\000\000\000\000\000\000\000\336\000\000\000\000\000\000\000\000\000\000\000\000\000\000\000\337\000\000\000\000\000\000\000\000\000\000\000\000\000\000\000\340\000\000\000\000\000\000\000\000\000\000\000\000\000\000\000\341\000\000\000\000\000\000\000\000\000\000\000\000\000\000\000\342\000\000\000\000\000\000\000\000\000\000\000\000\000\000\000\343\000\000\000\000\000\000\000\000\000\000\000\000\000\000\000\344\000\000\000\000\000\000\000\000\000\000\000\000\000\000\000\345\000\000\000\000\000\000\000\000\000\000\000\000\000\000\000\346\000\000\000\000\000\000\000\000\000\000\000\000\000\000\000\347\000\000\000\000\000\000\000\000\000\000\000\000\000\000\000\350\000\000\000\000\000\000\000\000\000\000\000\000\000\000\000\351\000\000\000\000\000\000\000\000\000\000\000\000\000\000\000\352\000\000\000\000\000\000\000\000\000\000\000\000\000\000\000\353\000\000\000\000\000\000\000\000\000\000\000\000\000\000\000\354\000\000\000\000\000\000\000\000\000\000\000\000\000\000\000\355\000\000\000\000\000\000\000\000\000\000\000\000\000\000\000\356\000\000\000\000\000\000\000\000\000\000\000\000\000\000\000\357\000\000\000\000\000\000\000\000\000\000\000\000\000\000\000\360\000\000\000\000\000\000\000\000\000\000\000\000\000\000\000\361\000\000\000\000\000\000\000\000\000\000\000\000\000\000\000\362\000\000\000\000\000\000\000\000\000\000\000\000\000\000\000\363\000\000\000\000\000\000\000\000\000\000\000\000\000\000\000\364\000\000\000\000\000\000\000\000\000\000\000\000\000\000\000\365\000\000\000\000\000\000\000\000\000\000\000\000\000\000\000\366\000\000\000\000\000\000\000\000\000\000\000\000\000\000\000\367\000\000\000\000\000\000\000\000\000\000\000\000\000\000\000\370\000\000\000\000\000\000\000\000\000\000\000\000\000\000\000\371\000\000\000\000\000\000\000\000\000\000\000\000\000\000\000\372\000\000\000\000\000\000\000\000\000\000\000\000\000\000\000\373\000\000\000\000\000\000\000\000\000\000\000\000\000\000\000\374\000\000\000\000\000\000\000\000\000\000\000\000\000\000\000\375\000\000\000\000\000\000\000\000\000\000\000\000\000\000\000\376\000\000\000\000\000\000\000\000\000\000\000\000\000\000\000\377\000\000\000\000\000\000\000\000\000\000\000\000\000\000\000\000\001\000\000\000\000\000\000\000\000\000\000\000\000\000\000\001\001\000\000\000\000\000\000\000\000\000\000\000\000\000\000\002\001\000\000\000\000\000\000\000\000\000\000\000\000\000\000\003\001\000\000\000\000\000\000\000\000\000\000\000\000\000\000\004\001\000\000\000\000\000\000\000\000\000\000\000\000\000\000\005\001\000\000\000\000\000\000\000\000\000\000\000\000\000\000\006\001\000\000\000\000\000\000\000\000\000\000\000\000\000\000\007\001\000\000\000\000\000\000\000\000\000\000\000\000\000\000\010\001\000\000\000\000\000\000\000\000\000\000\000\000\000\000\t\001\000\000\000\000\000\000\000\000\000\000\000\000\000\000\n\001\000\000\000\000\000\000\000\000\000\000\000\000\000\000\013\001\000\000\000\000\000\000\000\000\000\000\000\000\000\000\014\001\000\000\000\000\000\000\000\000\000\000\000\000\000\000\r\001\000\000\000\000\000\000\000\000\000\000\000\000\000\000\016\001\000\000\000\000\000\000\000\000\000\000\000\000\000\000\017\001\000\000\000\000\000\000\000\000\000\000\000\000\000\000\020\001\000\000\000\000\000\000\000\000\000\000\000\000\000\000\021\001\000\000\000\000\000\000\000\000\000\000\000\000\000\000\022\001\000\000\000\000\000\000\000\000\000\000\000\000\000\000\023\001\000\000\000\000\000\000\000\000\000\000\000\000\000\000\024\001\000\000\000\000\000\000\000\000\000\000\000\000\000\000\025\001\000\000\000\000\000\000\000\000\000\000\000\000\000\000\026\001\000\000\000\000\000\000\000\000\000\000\000\000\000\000\027\001\000\000\000\000\000\000\000\000\000\000\000\000\000\000\030\001\000\000\000\000\000\000\000\000\000\000\000\000\000\000\031\001\000\000\000\000\000\000\000\000\000\000\000\000\000\000\032\001\000\000\000\000\000\000\000\000\000\000\000\000\000\000\033\001\000\000\000\000\000\000\000\000\000\000\000\000\000\000\034\001\000\000\000\000\000\000\000\000\000\000\000\000\000\000\035\001\000\000\000\000\000\000\000\000\000\000\000\000\000\000\036\001\000\000\000\000\000\000\000\000\000\000\000\000\000\000\037\001\000\000\000\000\000\000\000\000\000\000\000\000\000\000 \001\000\000\000\000\000\000\000\000\000\000\000\000\000\000!\001\000\000\000\000\000\000\000\000\000\000\000\000\000\000\"\001\000\000\000\000\000\000\000\000\000\000\000\000\000\000#\001\000\000\000\000\000\000\000\000\000\000\000\000\000\000$\001\000\000\000\000\000\000\000\000\000\000\000\000\000\000%\001\000\000\000\000\000\000\000\000\000\000\000\000\000\000&\001\000\000\000\000\000\000\000\000\000\000\000\000\000\000\'\001\000\000\000\000\000\000\000\000\000\000\000\000\000\000(\001\000\000\000\000\000\000\000\000\000\000\000\000\000\000)\001\000\000\000\000\000\000\000\000\000\000\000\000\000\000*\001\000\000\000\000\000\000\000\000\000\000\000\000\000\000+\001\000\000\000\000\000\000\000\000\000\000\000\000\000\000,